unsigned char __ml_dataset_model_tflite[] = {
  0x1c, 0x00, 0x00, 0x00, 0x54, 0x46, 0x4c, 0x33, 0x14, 0x00, 0x20, 0x00,
  0x04, 0x00, 0x08, 0x00, 0x0c, 0x00, 0x10, 0x00, 0x14, 0x00, 0x00, 0x00,
  0x18, 0x00, 0x1c, 0x00, 0x14, 0x00, 0x00, 0x00, 0x03, 0x00, 0x00, 0x00,
  0x58, 0x00, 0x00, 0x00, 0x4c, 0x00, 0x00, 0x00, 0x34, 0x01, 0x00, 0x00,
  0x0c, 0x00, 0x00, 0x00, 0xdc, 0x00, 0x00, 0x00, 0x5c, 0x00, 0x00, 0x00,
  0x0d, 0x00, 0x00, 0x00, 0xe0, 0x11, 0x00, 0x00, 0xdc, 0x11, 0x00, 0x00,
  0x34, 0x11, 0x00, 0x00, 0xc0, 0x10, 0x00, 0x00, 0xe8, 0x0c, 0x00, 0x00,
  0x84, 0x05, 0x00, 0x00, 0x04, 0x05, 0x00, 0x00, 0xc4, 0x11, 0x00, 0x00,
  0xc0, 0x11, 0x00, 0x00, 0xbc, 0x11, 0x00, 0x00, 0xb8, 0x11, 0x00, 0x00,
  0xb4, 0x11, 0x00, 0x00, 0xd4, 0x00, 0x00, 0x00, 0x01, 0x00, 0x00, 0x00,
  0x0c, 0x01, 0x00, 0x00, 0x05, 0x00, 0x00, 0x00, 0x5c, 0x04, 0x00, 0x00,
  0x94, 0x03, 0x00, 0x00, 0xdc, 0x02, 0x00, 0x00, 0x3c, 0x02, 0x00, 0x00,
  0xa0, 0x01, 0x00, 0x00, 0x01, 0x00, 0x00, 0x00, 0x10, 0x00, 0x00, 0x00,
  0x00, 0x00, 0x0a, 0x00, 0x10, 0x00, 0x0c, 0x00, 0x08, 0x00, 0x04, 0x00,
  0x0a, 0x00, 0x00, 0x00, 0x0c, 0x00, 0x00, 0x00, 0x1c, 0x00, 0x00, 0x00,
  0x20, 0x00, 0x00, 0x00, 0x0f, 0x00, 0x00, 0x00, 0x73, 0x65, 0x72, 0x76,
  0x69, 0x6e, 0x67, 0x5f, 0x64, 0x65, 0x66, 0x61, 0x75, 0x6c, 0x74, 0x00,
  0x01, 0x00, 0x00, 0x00, 0x14, 0x00, 0x00, 0x00, 0x01, 0x00, 0x00, 0x00,
  0x28, 0x00, 0x00, 0x00, 0x08, 0x00, 0x0c, 0x00, 0x08, 0x00, 0x04, 0x00,
  0x08, 0x00, 0x00, 0x00, 0x0a, 0x00, 0x00, 0x00, 0x04, 0x00, 0x00, 0x00,
  0x08, 0x00, 0x00, 0x00, 0x6f, 0x75, 0x74, 0x70, 0x75, 0x74, 0x5f, 0x30,
  0x00, 0x00, 0x00, 0x00, 0x8a, 0xef, 0xff, 0xff, 0x04, 0x00, 0x00, 0x00,
  0x01, 0x00, 0x00, 0x00, 0x78, 0x00, 0x00, 0x00, 0x01, 0x00, 0x00, 0x00,
  0x0c, 0x00, 0x00, 0x00, 0x08, 0x00, 0x0c, 0x00, 0x04, 0x00, 0x08, 0x00,
  0x08, 0x00, 0x00, 0x00, 0x08, 0x00, 0x00, 0x00, 0x0c, 0x00, 0x00, 0x00,
  0x13, 0x00, 0x00, 0x00, 0x6d, 0x69, 0x6e, 0x5f, 0x72, 0x75, 0x6e, 0x74,
  0x69, 0x6d, 0x65, 0x5f, 0x76, 0x65, 0x72, 0x73, 0x69, 0x6f, 0x6e, 0x00,
  0xce, 0xef, 0xff, 0xff, 0x04, 0x00, 0x00, 0x00, 0x10, 0x00, 0x00, 0x00,
  0x31, 0x2e, 0x35, 0x2e, 0x30, 0x00, 0x00, 0x00, 0x00, 0x00, 0x00, 0x00,
  0x00, 0x00, 0x00, 0x00, 0x0f, 0x00, 0x00, 0x00, 0x4d, 0x4c, 0x49, 0x52,
  0x20, 0x43, 0x6f, 0x6e, 0x76, 0x65, 0x72, 0x74, 0x65, 0x64, 0x2e, 0x00,
  0x00, 0x00, 0x0e, 0x00, 0x18, 0x00, 0x04, 0x00, 0x08, 0x00, 0x0c, 0x00,
  0x10, 0x00, 0x14, 0x00, 0x0e, 0x00, 0x00, 0x00, 0x48, 0x00, 0x00, 0x00,
  0x3c, 0x00, 0x00, 0x00, 0x30, 0x00, 0x00, 0x00, 0x14, 0x00, 0x00, 0x00,
  0x04, 0x00, 0x00, 0x00, 0x04, 0x00, 0x00, 0x00, 0x6d, 0x61, 0x69, 0x6e,
  0x00, 0x00, 0x00, 0x00, 0x05, 0x00, 0x00, 0x00, 0xe0, 0x02, 0x00, 0x00,
  0x18, 0x02, 0x00, 0x00, 0x8c, 0x01, 0x00, 0x00, 0xdc, 0x00, 0x00, 0x00,
  0x44, 0x00, 0x00, 0x00, 0x01, 0x00, 0x00, 0x00, 0x0a, 0x00, 0x00, 0x00,
  0x01, 0x00, 0x00, 0x00, 0x00, 0x00, 0x00, 0x00, 0x0b, 0x00, 0x00, 0x00,
  0x04, 0x10, 0x00, 0x00, 0xbc, 0x0f, 0x00, 0x00, 0x54, 0x0f, 0x00, 0x00,
  0xe8, 0x0e, 0x00, 0x00, 0x08, 0x0b, 0x00, 0x00, 0x8c, 0x03, 0x00, 0x00,
  0x00, 0x03, 0x00, 0x00, 0x38, 0x02, 0x00, 0x00, 0x80, 0x01, 0x00, 0x00,
  0xe0, 0x00, 0x00, 0x00, 0x44, 0x00, 0x00, 0x00, 0x7a, 0xff, 0xff, 0xff,
  0x00, 0x00, 0x00, 0x09, 0x04, 0x00, 0x00, 0x00, 0x1c, 0x00, 0x00, 0x00,
  0x10, 0x00, 0x00, 0x00, 0x04, 0x00, 0x00, 0x00, 0xa2, 0xf0, 0xff, 0xff,
  0x00, 0x00, 0x80, 0x3f, 0x01, 0x00, 0x00, 0x00, 0x0a, 0x00, 0x00, 0x00,
  0x01, 0x00, 0x00, 0x00, 0x09, 0x00, 0x00, 0x00, 0x60, 0xfd, 0xff, 0xff,
  0x19, 0x00, 0x00, 0x00, 0x00, 0x00, 0x00, 0x19, 0x01, 0x00, 0x00, 0x00,
  0x76, 0xf0, 0xff, 0xff, 0x30, 0x00, 0x00, 0x00, 0x0b, 0x00, 0x00, 0x00,
  0x08, 0x00, 0x00, 0x00, 0x30, 0x00, 0x00, 0x00, 0x19, 0x00, 0x00, 0x00,
  0x53, 0x74, 0x61, 0x74, 0x65, 0x66, 0x75, 0x6c, 0x50, 0x61, 0x72, 0x74,
  0x69, 0x74, 0x69, 0x6f, 0x6e, 0x65, 0x64, 0x43, 0x61, 0x6c, 0x6c, 0x3a,
  0x30, 0x00, 0x00, 0x00, 0x02, 0x00, 0x00, 0x00, 0x01, 0x00, 0x00, 0x00,
  0x03, 0x00, 0x00, 0x00, 0xc0, 0xf0, 0xff, 0xff, 0x00, 0x00, 0x0e, 0x00,
  0x18, 0x00, 0x08, 0x00, 0x0c, 0x00, 0x10, 0x00, 0x07, 0x00, 0x14, 0x00,
  0x0e, 0x00, 0x00, 0x00, 0x00, 0x00, 0x00, 0x08, 0x03, 0x00, 0x00, 0x00,
  0x18, 0x00, 0x00, 0x00, 0x0c, 0x00, 0x00, 0x00, 0x04, 0x00, 0x00, 0x00,
  0x90, 0xf0, 0xff, 0xff, 0x01, 0x00, 0x00, 0x00, 0x09, 0x00, 0x00, 0x00,
  0x03, 0x00, 0x00, 0x00, 0x08, 0x00, 0x00, 0x00, 0x03, 0x00, 0x00, 0x00,
  0x01, 0x00, 0x00, 0x00, 0xf8, 0xfd, 0xff, 0xff, 0x09, 0x00, 0x00, 0x00,
  0x00, 0x00, 0x00, 0x09, 0x01, 0x00, 0x00, 0x00, 0x0e, 0xf1, 0xff, 0xff,
  0x48, 0x00, 0x00, 0x00, 0x0a, 0x00, 0x00, 0x00, 0x08, 0x00, 0x00, 0x00,
  0x48, 0x00, 0x00, 0x00, 0x32, 0x00, 0x00, 0x00, 0x73, 0x65, 0x71, 0x75,
  0x65, 0x6e, 0x74, 0x69, 0x61, 0x6c, 0x2f, 0x6f, 0x75, 0x74, 0x70, 0x75,
  0x74, 0x2f, 0x4d, 0x61, 0x74, 0x4d, 0x75, 0x6c, 0x3b, 0x73, 0x65, 0x71,
  0x75, 0x65, 0x6e, 0x74, 0x69, 0x61, 0x6c, 0x2f, 0x6f, 0x75, 0x74, 0x70,
  0x75, 0x74, 0x2f, 0x42, 0x69, 0x61, 0x73, 0x41, 0x64, 0x64, 0x00, 0x00,
  0x02, 0x00, 0x00, 0x00, 0x01, 0x00, 0x00, 0x00, 0x03, 0x00, 0x00, 0x00,
  0x70, 0xf1, 0xff, 0xff, 0x00, 0x00, 0x0a, 0x00, 0x10, 0x00, 0x04, 0x00,
  0x08, 0x00, 0x0c, 0x00, 0x0a, 0x00, 0x00, 0x00, 0x02, 0x00, 0x00, 0x00,
  0x10, 0x00, 0x00, 0x00, 0x04, 0x00, 0x00, 0x00, 0x01, 0x00, 0x00, 0x00,
  0x08, 0x00, 0x00, 0x00, 0x02, 0x00, 0x00, 0x00, 0x07, 0x00, 0x00, 0x00,
  0x02, 0x00, 0x00, 0x00, 0x94, 0xfe, 0xff, 0xff, 0x16, 0x00, 0x00, 0x00,
  0x00, 0x00, 0x00, 0x16, 0x01, 0x00, 0x00, 0x00, 0xaa, 0xf1, 0xff, 0xff,
  0x30, 0x00, 0x00, 0x00, 0x09, 0x00, 0x00, 0x00, 0x08, 0x00, 0x00, 0x00,
  0x30, 0x00, 0x00, 0x00, 0x1a, 0x00, 0x00, 0x00, 0x73, 0x65, 0x71, 0x75,
  0x65, 0x6e, 0x74, 0x69, 0x61, 0x6c, 0x2f, 0x66, 0x6c, 0x61, 0x74, 0x74,
  0x65, 0x6e, 0x2f, 0x52, 0x65, 0x73, 0x68, 0x61, 0x70, 0x65, 0x00, 0x00,
  0x02, 0x00, 0x00, 0x00, 0x01, 0x00, 0x00, 0x00, 0x4b, 0x00, 0x00, 0x00,
  0xf4, 0xf1, 0xff, 0xff, 0x00, 0x00, 0x0e, 0x00, 0x1a, 0x00, 0x08, 0x00,
  0x0c, 0x00, 0x10, 0x00, 0x07, 0x00, 0x14, 0x00, 0x0e, 0x00, 0x00, 0x00,
  0x00, 0x00, 0x00, 0x05, 0x01, 0x00, 0x00, 0x00, 0x3c, 0x00, 0x00, 0x00,
  0x30, 0x00, 0x00, 0x00, 0x14, 0x00, 0x00, 0x00, 0x00, 0x00, 0x0e, 0x00,
  0x18, 0x00, 0x17, 0x00, 0x10, 0x00, 0x0c, 0x00, 0x08, 0x00, 0x04, 0x00,
  0x0e, 0x00, 0x00, 0x00, 0x03, 0x00, 0x00, 0x00, 0x01, 0x00, 0x00, 0x00,
  0x03, 0x00, 0x00, 0x00, 0x01, 0x00, 0x00, 0x00, 0x00, 0x00, 0x00, 0x01,
  0x01, 0x00, 0x00, 0x00, 0x07, 0x00, 0x00, 0x00, 0x01, 0x00, 0x00, 0x00,
  0x06, 0x00, 0x00, 0x00, 0x48, 0xff, 0xff, 0xff, 0x11, 0x00, 0x00, 0x00,
  0x00, 0x00, 0x00, 0x11, 0x01, 0x00, 0x00, 0x00, 0x5e, 0xf2, 0xff, 0xff,
  0x38, 0x00, 0x00, 0x00, 0x08, 0x00, 0x00, 0x00, 0x08, 0x00, 0x00, 0x00,
  0x40, 0x00, 0x00, 0x00, 0x20, 0x00, 0x00, 0x00, 0x73, 0x65, 0x71, 0x75,
  0x65, 0x6e, 0x74, 0x69, 0x61, 0x6c, 0x2f, 0x6d, 0x61, 0x78, 0x5f, 0x70,
  0x6f, 0x6f, 0x6c, 0x69, 0x6e, 0x67, 0x32, 0x64, 0x2f, 0x4d, 0x61, 0x78,
  0x50, 0x6f, 0x6f, 0x6c, 0x00, 0x00, 0x00, 0x00, 0x04, 0x00, 0x00, 0x00,
  0x01, 0x00, 0x00, 0x00, 0x01, 0x00, 0x00, 0x00, 0x19, 0x00, 0x00, 0x00,
  0x03, 0x00, 0x00, 0x00, 0xb8, 0xf2, 0xff, 0xff, 0x00, 0x00, 0x0e, 0x00,
  0x16, 0x00, 0x00, 0x00, 0x08, 0x00, 0x0c, 0x00, 0x07, 0x00, 0x10, 0x00,
  0x0e, 0x00, 0x00, 0x00, 0x00, 0x00, 0x00, 0x01, 0x2c, 0x00, 0x00, 0x00,
  0x20, 0x00, 0x00, 0x00, 0x10, 0x00, 0x00, 0x00, 0x00, 0x00, 0x0a, 0x00,
  0x0c, 0x00, 0x00, 0x00, 0x04, 0x00, 0x08, 0x00, 0x0a, 0x00, 0x00, 0x00,
  0x01, 0x00, 0x00, 0x00, 0x01, 0x00, 0x00, 0x00, 0x01, 0x00, 0x00, 0x00,
  0x06, 0x00, 0x00, 0x00, 0x03, 0x00, 0x00, 0x00, 0x00, 0x00, 0x00, 0x00,
  0x04, 0x00, 0x00, 0x00, 0x05, 0x00, 0x00, 0x00, 0x0c, 0x00, 0x10, 0x00,
  0x0b, 0x00, 0x00, 0x00, 0x0c, 0x00, 0x04, 0x00, 0x0c, 0x00, 0x00, 0x00,
  0x03, 0x00, 0x00, 0x00, 0x00, 0x00, 0x00, 0x03, 0x01, 0x00, 0x00, 0x00,
  0x22, 0xf3, 0xff, 0xff, 0x54, 0x00, 0x00, 0x00, 0x07, 0x00, 0x00, 0x00,
  0x08, 0x00, 0x00, 0x00, 0x5c, 0x00, 0x00, 0x00, 0x3f, 0x00, 0x00, 0x00,
  0x73, 0x65, 0x71, 0x75, 0x65, 0x6e, 0x74, 0x69, 0x61, 0x6c, 0x2f, 0x63,
  0x6f, 0x6e, 0x76, 0x32, 0x64, 0x2f, 0x42, 0x69, 0x61, 0x73, 0x41, 0x64,
  0x64, 0x3b, 0x73, 0x65, 0x71, 0x75, 0x65, 0x6e, 0x74, 0x69, 0x61, 0x6c,
  0x2f, 0x63, 0x6f, 0x6e, 0x76, 0x32, 0x64, 0x2f, 0x43, 0x6f, 0x6e, 0x76,
  0x32, 0x44, 0x3b, 0x63, 0x6f, 0x6e, 0x76, 0x32, 0x64, 0x2f, 0x62, 0x69,
  0x61, 0x73, 0x31, 0x00, 0x04, 0x00, 0x00, 0x00, 0x01, 0x00, 0x00, 0x00,
  0x03, 0x00, 0x00, 0x00, 0x19, 0x00, 0x00, 0x00, 0x03, 0x00, 0x00, 0x00,
  0x3c, 0xf3, 0xff, 0xff, 0xe6, 0xf3, 0xff, 0xff, 0x04, 0x00, 0x00, 0x00,
  0x0c, 0x00, 0x00, 0x00, 0x8c, 0xc0, 0x7d, 0xbd, 0xc4, 0x53, 0x8c, 0xbd,
  0x11, 0x30, 0x7f, 0x3c, 0xaa, 0xf3, 0xff, 0xff, 0x54, 0x00, 0x00, 0x00,
  0x06, 0x00, 0x00, 0x00, 0x08, 0x00, 0x00, 0x00, 0x50, 0x00, 0x00, 0x00,
  0x3e, 0x00, 0x00, 0x00, 0x73, 0x65, 0x71, 0x75, 0x65, 0x6e, 0x74, 0x69,
  0x61, 0x6c, 0x2f, 0x63, 0x6f, 0x6e, 0x76, 0x32, 0x64, 0x2f, 0x42, 0x69,
  0x61, 0x73, 0x41, 0x64, 0x64, 0x3b, 0x73, 0x65, 0x71, 0x75, 0x65, 0x6e,
  0x74, 0x69, 0x61, 0x6c, 0x2f, 0x63, 0x6f, 0x6e, 0x76, 0x32, 0x64, 0x2f,
  0x43, 0x6f, 0x6e, 0x76, 0x32, 0x44, 0x3b, 0x63, 0x6f, 0x6e, 0x76, 0x32,
  0x64, 0x2f, 0x62, 0x69, 0x61, 0x73, 0x00, 0x00, 0x01, 0x00, 0x00, 0x00,
  0x03, 0x00, 0x00, 0x00, 0xb8, 0xf3, 0xff, 0xff, 0x62, 0xf4, 0xff, 0xff,
  0x04, 0x00, 0x00, 0x00, 0x08, 0x07, 0x00, 0x00, 0x88, 0x98, 0x8e, 0xbb,
  0x87, 0xe4, 0x0a, 0xbe, 0xa5, 0xa5, 0x2f, 0x3d, 0x8a, 0x5b, 0x78, 0x3d,
  0x33, 0xee, 0xd2, 0x3d, 0x63, 0x53, 0xa9, 0x3e, 0x10, 0xd8, 0x9c, 0x3e,
  0x83, 0x08, 0x32, 0xbd, 0x7c, 0x04, 0x5c, 0xbd, 0x70, 0x72, 0x83, 0xbc,
  0x68, 0xfb, 0x02, 0x3e, 0x96, 0xc3, 0x1c, 0xbe, 0x57, 0x23, 0x9a, 0xbe,
  0xa7, 0x4e, 0x94, 0x3e, 0x12, 0x56, 0x9f, 0xbd, 0xe1, 0x85, 0x04, 0xbe,
  0x66, 0x8f, 0x04, 0x3e, 0x80, 0x4c, 0x16, 0x3c, 0x0e, 0x95, 0xf4, 0xbd,
  0x7e, 0xf0, 0xea, 0xbd, 0x22, 0x40, 0x3c, 0xbd, 0x0e, 0x96, 0x06, 0x3e,
  0xc2, 0x69, 0xaf, 0x3c, 0x3b, 0xe2, 0xac, 0x3c, 0x0a, 0x87, 0xd0, 0x3d,
  0xf6, 0xa4, 0x27, 0x3e, 0x8f, 0x71, 0xda, 0xbd, 0x63, 0xc7, 0xfa, 0xbd,
  0xb6, 0xf8, 0xb5, 0x3d, 0x4a, 0xef, 0x5a, 0x3e, 0x84, 0x9b, 0xe7, 0x3d,
  0xd2, 0xce, 0x73, 0x3e, 0x0d, 0x3c, 0x03, 0xbe, 0x54, 0x15, 0x39, 0x3e,
  0xef, 0x6e, 0x13, 0x3e, 0xb0, 0x3f, 0xe1, 0xbd, 0xfa, 0x9a, 0x07, 0x3e,
  0x39, 0x35, 0x86, 0x3e, 0x80, 0xa6, 0x84, 0x3e, 0x8c, 0x5e, 0x87, 0x3e,
  0x18, 0xb7, 0x9b, 0xbd, 0xc7, 0x7c, 0x08, 0xbd, 0x6e, 0xfb, 0x86, 0xbe,
  0x57, 0x0f, 0xd5, 0x3d, 0x0e, 0x53, 0x52, 0x3a, 0x7a, 0xe0, 0x6d, 0xbc,
  0x41, 0xe1, 0x42, 0x3e, 0x86, 0x19, 0xce, 0x3e, 0x0f, 0xac, 0x66, 0x3e,
  0x83, 0x47, 0x71, 0x3e, 0x09, 0x03, 0x2e, 0x3c, 0xe0, 0xdf, 0x88, 0xbe,
  0x09, 0xdf, 0x12, 0x3e, 0x7e, 0xbe, 0x20, 0x3d, 0xe9, 0xcc, 0x09, 0xbe,
  0xe2, 0xee, 0x22, 0x3e, 0xb6, 0xf0, 0xc6, 0x3b, 0x65, 0x90, 0x36, 0x3e,
  0x91, 0xfa, 0x1e, 0x3a, 0x07, 0xad, 0x41, 0xbe, 0xd2, 0x88, 0x96, 0x3d,
  0xca, 0x54, 0x20, 0xbd, 0x86, 0x23, 0x6e, 0xbc, 0xe2, 0x5e, 0xc4, 0xbe,
  0x35, 0xf5, 0x18, 0x3d, 0x9c, 0x98, 0x85, 0x3d, 0x0b, 0xe4, 0xad, 0xbd,
  0x22, 0xfa, 0x6b, 0x3c, 0x30, 0x3e, 0x87, 0x3d, 0x1c, 0x45, 0x14, 0x3d,
  0x92, 0xc4, 0xbc, 0x3d, 0x50, 0xae, 0xb6, 0xbd, 0xeb, 0xbb, 0x4f, 0x3e,
  0x05, 0xff, 0x2f, 0xbe, 0x06, 0xd7, 0x7e, 0xbc, 0x25, 0x91, 0xb7, 0x3e,
  0x10, 0x46, 0x86, 0xbe, 0x93, 0x32, 0x65, 0x3d, 0x48, 0xd5, 0x8e, 0x3e,
  0x96, 0x61, 0x41, 0x3e, 0xc2, 0x9a, 0xdc, 0xbd, 0xec, 0x7c, 0x16, 0x3e,
  0x8b, 0x08, 0x4e, 0xbe, 0x29, 0xef, 0x2f, 0xbe, 0xde, 0x90, 0x13, 0x3e,
  0x21, 0xbc, 0xbe, 0x3e, 0x04, 0x88, 0xa2, 0xbd, 0x7d, 0xd6, 0x66, 0x3e,
  0x67, 0x0c, 0x6b, 0x3e, 0xc8, 0xbe, 0x28, 0x3c, 0xa6, 0xbe, 0x90, 0xbe,
  0x73, 0xd7, 0x5e, 0xbe, 0x64, 0x8b, 0x14, 0x3e, 0xb0, 0x8d, 0x15, 0x3e,
  0xef, 0x62, 0xca, 0x3c, 0x5e, 0x13, 0x47, 0xbd, 0x09, 0x01, 0xa9, 0xbe,
  0xaf, 0xa9, 0x81, 0x3d, 0x1f, 0x9a, 0xd6, 0x3d, 0xc9, 0xbf, 0x90, 0x3d,
  0x35, 0x58, 0x59, 0xbd, 0x6a, 0x36, 0xa9, 0xbd, 0x2d, 0x8a, 0x97, 0x3d,
  0x48, 0x10, 0xd0, 0x3d, 0x5c, 0x18, 0x25, 0xbe, 0x1b, 0xdd, 0x8a, 0xbd,
  0x36, 0x8a, 0xcf, 0x3b, 0xea, 0x9a, 0xb2, 0xbd, 0xde, 0x93, 0x19, 0x3e,
  0x3b, 0x06, 0x5d, 0xbe, 0x2a, 0xc0, 0x94, 0x3d, 0x3c, 0x80, 0x55, 0xbd,
  0x6a, 0xb2, 0xbf, 0xbb, 0x9a, 0x35, 0xf1, 0xbd, 0x10, 0x29, 0x34, 0xbe,
  0x89, 0xf2, 0xd7, 0xbc, 0x01, 0x8d, 0x53, 0x3e, 0xa5, 0x17, 0x3a, 0x3e,
  0x13, 0x6a, 0xc3, 0xbd, 0x93, 0x08, 0xeb, 0xbd, 0x0a, 0x4d, 0x2b, 0x3d,
  0x1e, 0x44, 0xff, 0x3d, 0x0a, 0x08, 0xe0, 0xbc, 0x17, 0xbd, 0xc1, 0x3d,
  0x31, 0xed, 0x28, 0xbc, 0xb2, 0xf9, 0xc3, 0x3c, 0x3b, 0x4f, 0x2b, 0xbe,
  0x66, 0x34, 0x80, 0xb8, 0x44, 0x34, 0x30, 0xbe, 0x05, 0x08, 0x02, 0x3f,
  0x75, 0x91, 0x9d, 0x3d, 0x1f, 0xc9, 0xe5, 0xbd, 0x2a, 0x7f, 0x6d, 0xbd,
  0xa1, 0x06, 0x5b, 0xbc, 0x53, 0x4d, 0xc7, 0x3e, 0xcd, 0x4c, 0x9d, 0x3e,
  0x1c, 0x6c, 0xf4, 0xbd, 0x6e, 0x53, 0x3b, 0xbd, 0x7a, 0xce, 0xe0, 0xbd,
  0x27, 0x29, 0x8d, 0x3e, 0x36, 0x0b, 0x2d, 0x3d, 0x88, 0x84, 0x07, 0xbc,
  0x2e, 0x72, 0x7a, 0x3e, 0x6b, 0x25, 0x00, 0x3e, 0x07, 0xbe, 0x13, 0x3d,
  0x0a, 0x2f, 0xff, 0x3c, 0xd5, 0x3f, 0x10, 0xbe, 0x36, 0xbc, 0x76, 0xbe,
  0x70, 0x8b, 0x42, 0x3e, 0x91, 0x7d, 0x0f, 0x3e, 0xe3, 0xef, 0xa8, 0x3c,
  0x60, 0xaa, 0x89, 0xbe, 0xdb, 0x0f, 0xd8, 0xbd, 0x13, 0x16, 0x67, 0xbd,
  0x49, 0x88, 0x54, 0xbe, 0xf8, 0x9a, 0xb6, 0x3d, 0xf9, 0xe7, 0x50, 0x3e,
  0x2b, 0x1d, 0xc3, 0x3e, 0xa6, 0x8d, 0x81, 0xbc, 0xe1, 0x2a, 0x35, 0x3e,
  0xde, 0x6f, 0xd2, 0xbd, 0xaa, 0xd7, 0x27, 0x3e, 0x63, 0x81, 0xe1, 0x3d,
  0xf4, 0x3f, 0x2e, 0xbe, 0x00, 0xf6, 0x3c, 0xbd, 0xd8, 0xd0, 0xab, 0x3c,
  0x39, 0xae, 0x94, 0x3b, 0x81, 0x7a, 0x43, 0x3e, 0x01, 0xa0, 0x25, 0xbc,
  0xb1, 0xf8, 0xe4, 0xbd, 0xc6, 0x96, 0x49, 0xbe, 0xc1, 0xbc, 0x46, 0xbe,
  0x23, 0x1b, 0x65, 0x3e, 0x2f, 0xf8, 0x41, 0x3e, 0xd5, 0x70, 0x51, 0xbe,
  0x79, 0xdd, 0xcb, 0xbe, 0x09, 0xec, 0x1e, 0xbd, 0x50, 0x16, 0x8b, 0xb6,
  0x83, 0xf7, 0x6e, 0x3e, 0x42, 0x94, 0x5d, 0x3e, 0x45, 0xf3, 0x23, 0x3e,
  0xf8, 0x12, 0xa1, 0x3e, 0xde, 0x03, 0x42, 0x3e, 0xd2, 0xcf, 0x0a, 0x3e,
  0x5f, 0x21, 0x3c, 0x3e, 0xcc, 0x73, 0x9d, 0x3e, 0xed, 0x40, 0x42, 0x3e,
  0x13, 0x4a, 0xd3, 0x3d, 0x85, 0x3a, 0x17, 0x3e, 0xbe, 0x06, 0x9f, 0x3e,
  0xf1, 0x8b, 0x1d, 0x3d, 0x88, 0xf6, 0x28, 0xbe, 0xc1, 0x2a, 0xda, 0x3d,
  0xb2, 0x8d, 0x4c, 0x3e, 0xc4, 0x29, 0x8a, 0x3e, 0x33, 0x68, 0xf5, 0x3d,
  0x66, 0xc6, 0xf1, 0xbb, 0xce, 0x72, 0x8e, 0x3d, 0xd0, 0x4c, 0x3c, 0xbe,
  0x46, 0xfa, 0x41, 0x3e, 0xab, 0xdd, 0xc4, 0x3d, 0xac, 0x17, 0x47, 0xbe,
  0xac, 0xcd, 0x88, 0xbd, 0x57, 0xc1, 0x98, 0xbe, 0x76, 0x8f, 0x5a, 0xbe,
  0xee, 0x82, 0xbd, 0xbb, 0x02, 0x06, 0x69, 0xbc, 0xe1, 0x70, 0x3f, 0x3e,
  0xe6, 0xd5, 0x8b, 0x3e, 0x1c, 0xde, 0xa7, 0x3e, 0x45, 0xba, 0x9f, 0xbb,
  0x0e, 0xc7, 0xbf, 0xbb, 0xb3, 0xa5, 0x4a, 0xbe, 0x21, 0xfa, 0x0b, 0xbe,
  0xeb, 0x0d, 0xed, 0xbd, 0x88, 0xe1, 0x19, 0xbd, 0x94, 0x72, 0x3f, 0xbd,
  0xf9, 0x09, 0x32, 0x3e, 0x4e, 0xdc, 0xf2, 0xbc, 0x1e, 0x4d, 0xfa, 0xbd,
  0xb1, 0xb3, 0xe7, 0xbd, 0x20, 0xfe, 0x55, 0xbe, 0x96, 0x98, 0xc1, 0x3d,
  0xb5, 0xf5, 0xf1, 0x3d, 0x63, 0x76, 0x7e, 0xbe, 0x22, 0xf5, 0x98, 0xbe,
  0xbc, 0x38, 0x86, 0x3d, 0xb6, 0x5b, 0x59, 0xbe, 0x4d, 0xef, 0x36, 0x3e,
  0x0e, 0x18, 0x1f, 0x3e, 0xbe, 0x29, 0x50, 0x3e, 0x4c, 0x23, 0xec, 0x3d,
  0xa9, 0x6b, 0x36, 0x3d, 0x5d, 0x4c, 0xe1, 0x3d, 0x63, 0x00, 0x21, 0xbd,
  0x37, 0xb5, 0x82, 0x3e, 0xd0, 0x3a, 0x0e, 0xbe, 0x95, 0xf7, 0x87, 0x3e,
  0x19, 0x5e, 0xca, 0xbd, 0x32, 0x9a, 0x9b, 0x3d, 0xa4, 0x14, 0x3b, 0x3e,
  0xca, 0x82, 0xc8, 0xbb, 0xfc, 0x53, 0xfa, 0x3d, 0xfa, 0xbf, 0x95, 0x3e,
  0x37, 0xbc, 0x16, 0xbe, 0x58, 0x0e, 0xab, 0x3e, 0xcc, 0x49, 0x43, 0x3f,
  0x83, 0x8c, 0xd9, 0x3e, 0xf9, 0x86, 0xf2, 0xbd, 0x8f, 0xc8, 0xc8, 0xbd,
  0xc4, 0x6b, 0x36, 0xbe, 0x38, 0x9f, 0x8a, 0xbd, 0x5b, 0xec, 0x5e, 0xbd,
  0x7a, 0x30, 0xd6, 0xbd, 0xdd, 0xb5, 0x40, 0x3d, 0x4e, 0x56, 0x2a, 0xbe,
  0xea, 0xa0, 0x8b, 0xbe, 0x57, 0xcd, 0xbd, 0x3e, 0xa3, 0xb8, 0x04, 0xbe,
  0x74, 0xe5, 0x10, 0x3e, 0x1e, 0x2f, 0x2b, 0xbb, 0x08, 0x0f, 0xac, 0x3d,
  0xc6, 0x67, 0x10, 0x3e, 0xf5, 0xe7, 0x34, 0xbe, 0x56, 0x43, 0x83, 0x3e,
  0xeb, 0xb7, 0x2d, 0xbe, 0x3d, 0xcb, 0x89, 0x3d, 0x77, 0x37, 0xe2, 0x3d,
  0x2c, 0x41, 0x63, 0x3d, 0x9c, 0xaf, 0x34, 0xbe, 0x56, 0x3d, 0x8c, 0xba,
  0x7f, 0xf8, 0x8b, 0x3c, 0x55, 0x3a, 0xec, 0x3c, 0x0a, 0xbd, 0x0f, 0x3e,
  0x8e, 0x7e, 0x3d, 0x3c, 0x06, 0xe4, 0x61, 0xbe, 0x28, 0xf2, 0x91, 0xbe,
  0x8e, 0xa1, 0x9d, 0x3e, 0xb3, 0x20, 0x94, 0xbd, 0xb4, 0x7e, 0x99, 0x3e,
  0x04, 0x08, 0xb6, 0x3d, 0xf0, 0x8e, 0x35, 0x3e, 0x7a, 0xbc, 0xe3, 0xbd,
  0x1a, 0xed, 0xfa, 0x3d, 0x2a, 0x42, 0xc2, 0xbd, 0x05, 0xe5, 0x74, 0x3e,
  0xaf, 0x1f, 0x57, 0xbd, 0x09, 0x82, 0x39, 0x3e, 0x9c, 0x1f, 0x03, 0x3d,
  0xe1, 0x00, 0x7d, 0x3e, 0xbe, 0x54, 0x61, 0xbe, 0x98, 0xdb, 0x54, 0xbe,
  0x8b, 0xe2, 0x02, 0x3e, 0x73, 0x8d, 0x06, 0x3f, 0x75, 0x21, 0x94, 0xbd,
  0xb4, 0xd9, 0xe8, 0xbc, 0x67, 0xcc, 0x63, 0x3e, 0x77, 0xef, 0xcd, 0x3b,
  0x7c, 0x6d, 0x61, 0xbe, 0xce, 0xbf, 0xa8, 0xbd, 0xe6, 0x9f, 0x27, 0xbd,
  0x7a, 0x0a, 0x9a, 0x3b, 0x6d, 0x7d, 0x16, 0x3e, 0x67, 0xbe, 0xbe, 0x3d,
  0x66, 0x12, 0x72, 0xbc, 0x94, 0xfc, 0x8b, 0xbe, 0x02, 0x00, 0x39, 0xbe,
  0x11, 0x5a, 0xd9, 0x3c, 0x9a, 0x2b, 0x76, 0x3b, 0x05, 0x7b, 0x65, 0xbe,
  0xdf, 0xed, 0xd1, 0x3b, 0xfe, 0x84, 0xc4, 0x3d, 0xb3, 0x70, 0x9f, 0xbd,
  0xd1, 0xd0, 0x0b, 0xbe, 0xc1, 0xbb, 0x00, 0x3e, 0xa4, 0x5e, 0x60, 0x3e,
  0xe2, 0x4d, 0xb9, 0xbd, 0x0f, 0x35, 0x3f, 0xbd, 0x2a, 0x8c, 0x24, 0x3e,
  0x8f, 0x08, 0xdb, 0x3d, 0x20, 0x4a, 0xba, 0x3d, 0x34, 0x73, 0xa4, 0xb9,
  0x11, 0x3c, 0x7e, 0x3c, 0x66, 0xa6, 0x2c, 0xbe, 0x11, 0x42, 0x05, 0x3e,
  0x38, 0x73, 0x04, 0x3e, 0x84, 0xbf, 0xf4, 0x3d, 0x2d, 0x09, 0xfe, 0xbd,
  0x79, 0xee, 0x22, 0x3e, 0x10, 0x7a, 0x37, 0xbe, 0xca, 0xa0, 0x08, 0x3e,
  0x53, 0xae, 0x5f, 0xbd, 0x23, 0x4d, 0x07, 0x3e, 0xc9, 0xb3, 0x26, 0x3e,
  0x36, 0xbf, 0x00, 0x3e, 0x39, 0xd4, 0xad, 0x3e, 0x91, 0x9a, 0xff, 0x3d,
  0x94, 0xbb, 0x2b, 0x3e, 0xf5, 0xeb, 0x02, 0x3f, 0x4b, 0x37, 0x00, 0x3e,
  0x4b, 0xb6, 0x4f, 0x3e, 0x9b, 0xdb, 0xbc, 0x3d, 0x81, 0x1b, 0xa3, 0x3c,
  0xc7, 0xf0, 0x91, 0x3d, 0x37, 0x16, 0xe9, 0x3d, 0xbf, 0x85, 0x1c, 0x3e,
  0x8f, 0x32, 0x59, 0x3e, 0x49, 0xed, 0x95, 0x3e, 0x23, 0x8d, 0xd6, 0x3d,
  0x0c, 0x79, 0x54, 0x3e, 0xea, 0xd3, 0xa5, 0x3c, 0x00, 0xe3, 0xd7, 0xbc,
  0x82, 0xa3, 0x2f, 0x3e, 0x6d, 0x2f, 0x80, 0xbb, 0x07, 0xbe, 0x9c, 0xbd,
  0xfe, 0x87, 0x4a, 0xbe, 0x10, 0xe1, 0xd9, 0x3d, 0xb9, 0x2f, 0xb7, 0x3c,
  0xe6, 0x99, 0xc2, 0xbd, 0x37, 0x83, 0x8c, 0xbe, 0xff, 0xf6, 0x25, 0x3e,
  0x7f, 0xa5, 0xc0, 0xbc, 0x48, 0x12, 0x2c, 0x3d, 0xa5, 0xd2, 0xfe, 0xbd,
  0x02, 0x4a, 0x45, 0x3e, 0x59, 0x19, 0xfc, 0x3d, 0x71, 0x73, 0x11, 0x3d,
  0xd2, 0x04, 0xd7, 0xbd, 0x69, 0x36, 0x03, 0x3e, 0xc7, 0x50, 0x1a, 0x3e,
  0xf1, 0xe4, 0x69, 0x3e, 0x61, 0xaa, 0x14, 0xbe, 0xd7, 0x2b, 0x92, 0xbe,
  0x6b, 0x24, 0x0c, 0xba, 0xb7, 0x3a, 0x4a, 0x3e, 0xf5, 0x2d, 0x41, 0x3e,
  0x40, 0x1a, 0x51, 0xbd, 0xb0, 0x07, 0xc3, 0x3e, 0x7f, 0xc3, 0xb5, 0x3d,
  0x60, 0xf3, 0x40, 0x3d, 0xa9, 0xbc, 0xdb, 0x3d, 0x30, 0xf8, 0x50, 0xbe,
  0xb3, 0x7b, 0x1c, 0xbe, 0x81, 0xfc, 0xa7, 0x3e, 0x19, 0x57, 0x6e, 0x3e,
  0x48, 0x88, 0x9a, 0x3e, 0x5f, 0x9f, 0x50, 0xbc, 0xef, 0xfa, 0xd1, 0x3d,
  0xa5, 0x8b, 0xa4, 0x3d, 0xa6, 0x81, 0x73, 0x3e, 0xe6, 0x70, 0x20, 0x3e,
  0x70, 0x55, 0xad, 0x3d, 0x42, 0x2b, 0x4d, 0x3e, 0x2e, 0x09, 0xd4, 0xbb,
  0x8e, 0xdc, 0xaf, 0xbd, 0x06, 0x21, 0x80, 0x3e, 0xc2, 0xaf, 0xda, 0x3c,
  0x04, 0x21, 0x65, 0x3e, 0xf9, 0x54, 0x33, 0x3e, 0xd7, 0x62, 0x40, 0x3e,
  0x28, 0x6e, 0x96, 0x3c, 0x86, 0x07, 0x5d, 0xbd, 0x16, 0x8e, 0x09, 0x3e,
  0xaa, 0x1f, 0xba, 0x3d, 0xe0, 0xee, 0x2a, 0xbd, 0x88, 0xb1, 0xf8, 0xbc,
  0x48, 0x7d, 0x40, 0x3d, 0xa2, 0x32, 0x0d, 0x3d, 0x58, 0xf5, 0x39, 0x3e,
  0x5a, 0x3e, 0x89, 0xbe, 0x36, 0x62, 0x86, 0xbe, 0xb0, 0xe8, 0x03, 0x3e,
  0x33, 0x03, 0xaf, 0xbd, 0x25, 0x5c, 0xe4, 0xbd, 0x98, 0x0b, 0xf9, 0x3d,
  0x31, 0xbe, 0x6a, 0x3e, 0xec, 0x77, 0xaa, 0xbe, 0xef, 0x3c, 0x40, 0xbe,
  0x47, 0xdf, 0x4e, 0x3d, 0x51, 0x7e, 0x8f, 0x3e, 0xb8, 0x43, 0xd7, 0xbd,
  0xd5, 0x69, 0x58, 0x3e, 0x99, 0x4b, 0x01, 0xbe, 0xfc, 0xa7, 0xd1, 0xbc,
  0x62, 0x7f, 0xb1, 0x3a, 0xdb, 0xbf, 0x7e, 0x3e, 0x13, 0xcd, 0x28, 0xbc,
  0x71, 0xff, 0x94, 0x3d, 0x16, 0x7b, 0xde, 0xbc, 0x46, 0xf6, 0x79, 0x3e,
  0x53, 0x1c, 0xc3, 0xbc, 0x12, 0x21, 0xdf, 0xbd, 0x5e, 0x4b, 0x0c, 0x3d,
  0xac, 0x1d, 0x23, 0x3e, 0x8d, 0xf9, 0xb3, 0x3e, 0x25, 0xe7, 0x99, 0x3e,
  0x58, 0x56, 0x5e, 0xbc, 0x59, 0x5f, 0x40, 0x3e, 0x5c, 0xd2, 0x99, 0x3e,
  0xd1, 0xb8, 0x68, 0x3e, 0xab, 0x30, 0xd3, 0xbd, 0x0b, 0x4d, 0x84, 0x3e,
  0x95, 0xe4, 0x0c, 0x3d, 0xee, 0x27, 0x0b, 0xbe, 0x0f, 0x0d, 0x96, 0xbd,
  0x4b, 0xc7, 0xe7, 0x3d, 0x47, 0x6e, 0xe9, 0xbd, 0xc1, 0x91, 0x4d, 0x3e,
  0xd6, 0xcc, 0xb4, 0x3e, 0x16, 0x48, 0x3d, 0x3f, 0x22, 0xfb, 0xff, 0xff,
  0x30, 0x00, 0x00, 0x00, 0x05, 0x00, 0x00, 0x00, 0x08, 0x00, 0x00, 0x00,
  0x38, 0x00, 0x00, 0x00, 0x18, 0x00, 0x00, 0x00, 0x73, 0x65, 0x71, 0x75,
  0x65, 0x6e, 0x74, 0x69, 0x61, 0x6c, 0x2f, 0x63, 0x6f, 0x6e, 0x76, 0x32,
  0x64, 0x2f, 0x43, 0x6f, 0x6e, 0x76, 0x32, 0x44, 0x00, 0x00, 0x00, 0x00,
  0x04, 0x00, 0x00, 0x00, 0x03, 0x00, 0x00, 0x00, 0x03, 0x00, 0x00, 0x00,
  0x19, 0x00, 0x00, 0x00, 0x02, 0x00, 0x00, 0x00, 0x18, 0xfb, 0xff, 0xff,
  0xc2, 0xfb, 0xff, 0xff, 0x04, 0x00, 0x00, 0x00, 0x84, 0x03, 0x00, 0x00,
  0x53, 0xbd, 0x92, 0xbe, 0x50, 0x2a, 0xf0, 0x3d, 0x57, 0xfb, 0x15, 0xbe,
  0xec, 0x59, 0x3c, 0x3d, 0xa5, 0xd4, 0xdb, 0xbe, 0xd2, 0x63, 0xc2, 0x3e,
  0x28, 0xcf, 0xa1, 0xbd, 0x3a, 0x69, 0xbb, 0x3e, 0x8e, 0xf4, 0x8f, 0xbe,
  0x0b, 0xf9, 0x0b, 0xbd, 0x19, 0x40, 0x41, 0x3e, 0x18, 0xfb, 0x76, 0xbe,
  0xcb, 0x51, 0x99, 0x3d, 0xc9, 0xc3, 0xeb, 0xbe, 0xf2, 0x98, 0xf7, 0x3e,
  0xa7, 0xfc, 0x61, 0xbd, 0xcd, 0xcf, 0x04, 0x3e, 0xf3, 0xf5, 0x6b, 0xbe,
  0x6f, 0x19, 0xf4, 0x3e, 0x82, 0x64, 0x77, 0x3e, 0x2d, 0xcf, 0xb8, 0x3c,
  0xee, 0x8c, 0x70, 0xbd, 0xb4, 0xc9, 0x3b, 0x3d, 0x80, 0x60, 0x18, 0xbd,
  0xb0, 0x07, 0xb0, 0x3e, 0x7c, 0x38, 0xe4, 0xbe, 0x02, 0x30, 0x92, 0x3e,
  0xf7, 0x44, 0xba, 0xbe, 0x8b, 0xb6, 0x81, 0xbe, 0x66, 0x61, 0x0e, 0xbe,
  0x36, 0x9b, 0x0c, 0xbe, 0xd1, 0xd3, 0x98, 0x3e, 0x26, 0x22, 0xd0, 0x3e,
  0x9b, 0x3f, 0xc0, 0xbe, 0x7c, 0xe7, 0xdb, 0x3e, 0xb9, 0x46, 0xc3, 0xbe,
  0xc5, 0xc4, 0xdb, 0x3e, 0xba, 0xfd, 0x4e, 0x3d, 0xc0, 0x0e, 0x9d, 0x3e,
  0xa6, 0xa9, 0x2d, 0x3e, 0x1d, 0x7d, 0x83, 0x3e, 0xd4, 0xae, 0xd3, 0x3e,
  0xb1, 0x48, 0x64, 0x3e, 0x20, 0xd5, 0xb1, 0xbd, 0x76, 0x63, 0x4f, 0x3e,
  0xa2, 0x62, 0xac, 0x3e, 0x0a, 0x59, 0x80, 0x3e, 0x8a, 0x40, 0x8f, 0x3d,
  0xea, 0x5a, 0xb1, 0xbe, 0x2b, 0xf5, 0xa9, 0xbe, 0x65, 0x23, 0x9f, 0x3e,
  0x44, 0x5d, 0xd3, 0x3e, 0x3d, 0x60, 0xcc, 0x3e, 0xbc, 0xe5, 0x10, 0xbd,
  0xd4, 0x29, 0x8f, 0x3e, 0xbe, 0x53, 0x8d, 0x3e, 0xb7, 0xbe, 0xa3, 0x3e,
  0x1e, 0x52, 0x75, 0x3e, 0x50, 0xea, 0x8c, 0x3e, 0x08, 0x41, 0xb0, 0x3d,
  0x49, 0x9f, 0x7e, 0x3d, 0x55, 0x14, 0xc3, 0x3e, 0x77, 0xb7, 0xb5, 0x3e,
  0x4c, 0x1e, 0xdd, 0x3e, 0x9e, 0x82, 0x9f, 0x3e, 0xae, 0xee, 0x20, 0xbd,
  0x3b, 0x26, 0xb7, 0x3e, 0x49, 0xa1, 0xae, 0x3e, 0xcd, 0xfe, 0xcc, 0x3e,
  0x41, 0x6a, 0xce, 0xbe, 0x59, 0x48, 0x41, 0xbe, 0x10, 0xce, 0x9c, 0x3c,
  0xa8, 0xe6, 0xc5, 0x3d, 0x9d, 0x96, 0xda, 0xbe, 0xc0, 0xa9, 0xdf, 0xbc,
  0x39, 0xe9, 0xed, 0xbd, 0xbc, 0x65, 0xa5, 0xbe, 0x16, 0x16, 0x82, 0x3e,
  0xc2, 0xfc, 0xbe, 0xbc, 0x15, 0xa4, 0x98, 0x3e, 0xa6, 0xcc, 0x10, 0x3c,
  0x52, 0x31, 0x1a, 0xbe, 0x4a, 0xf9, 0x98, 0xbd, 0x73, 0xdf, 0x87, 0xbe,
  0x52, 0x1f, 0x08, 0xbe, 0x90, 0x88, 0x25, 0xbd, 0xfd, 0x62, 0x9b, 0x3e,
  0x51, 0xd6, 0x94, 0x3d, 0xe6, 0x93, 0x00, 0x3d, 0xa7, 0x66, 0x2a, 0xbe,
  0x85, 0xad, 0xbc, 0xbe, 0x32, 0xe8, 0x6b, 0xbe, 0x4b, 0xdd, 0x89, 0x3e,
  0xf1, 0x92, 0x7c, 0xbd, 0x19, 0xaa, 0xd6, 0xbe, 0x96, 0xaa, 0x9e, 0xbe,
  0xab, 0x35, 0x1e, 0xbe, 0xe8, 0xbe, 0xf2, 0x3d, 0xf5, 0xd8, 0x91, 0x3e,
  0x5d, 0x09, 0x02, 0xbf, 0x18, 0x57, 0x6a, 0x3e, 0x66, 0xcb, 0x62, 0xbe,
  0x3f, 0x12, 0x41, 0xbe, 0x5c, 0x92, 0x93, 0x3d, 0xa5, 0x42, 0x3d, 0xbe,
  0xf1, 0x6f, 0xd8, 0x3e, 0x59, 0x10, 0x70, 0xbe, 0x06, 0x9b, 0xa9, 0xbe,
  0x38, 0x16, 0x36, 0x3e, 0x14, 0x87, 0x30, 0xbd, 0x0a, 0x0c, 0xb2, 0x3e,
  0xc9, 0xb9, 0xa3, 0xbe, 0xfc, 0xdc, 0x01, 0xbf, 0xc0, 0xf3, 0x88, 0xbe,
  0x5d, 0xdd, 0x23, 0xbe, 0xb0, 0xa6, 0x23, 0xbd, 0x46, 0xcd, 0xe0, 0xbe,
  0xe0, 0x5b, 0xd7, 0x3c, 0x28, 0x46, 0xe4, 0xbe, 0xf8, 0xe0, 0xb9, 0x3b,
  0x01, 0x4d, 0x1d, 0xbe, 0xdc, 0x84, 0xdb, 0x3d, 0x9f, 0x1e, 0xce, 0x3c,
  0x79, 0xff, 0xe9, 0x3e, 0x2e, 0x78, 0x86, 0x3d, 0x97, 0xf8, 0x84, 0xbe,
  0x90, 0x7f, 0xc0, 0xbe, 0x52, 0x78, 0xe9, 0xbd, 0xfb, 0x5a, 0xac, 0xbd,
  0x56, 0x67, 0xf3, 0xbe, 0x02, 0xf0, 0x13, 0xbd, 0xb9, 0x8e, 0x90, 0xbe,
  0xf9, 0x10, 0xd0, 0xbe, 0x8f, 0x59, 0xda, 0xbe, 0xf5, 0xf1, 0x99, 0xbe,
  0x8d, 0x9f, 0x9b, 0xbe, 0x5b, 0x01, 0x00, 0x3c, 0x11, 0x2a, 0x1c, 0xbe,
  0x3b, 0x3a, 0xc2, 0xbe, 0xaa, 0x45, 0x83, 0xbe, 0xd7, 0x70, 0x8e, 0x3e,
  0xa2, 0x39, 0xcb, 0xbe, 0x6a, 0x65, 0x86, 0xbe, 0x25, 0x4e, 0xe5, 0xbe,
  0xdf, 0xd3, 0xc7, 0xbe, 0x67, 0xb6, 0x7e, 0xbe, 0xf3, 0x90, 0x44, 0x3e,
  0x9f, 0x98, 0x27, 0xbe, 0x69, 0xe0, 0x6d, 0x3e, 0xd0, 0xac, 0x8f, 0xbe,
  0xe5, 0x5a, 0xbd, 0x3d, 0xff, 0x17, 0x81, 0xbe, 0xa1, 0x14, 0xe3, 0xbd,
  0x35, 0xd4, 0x5a, 0x3d, 0x4c, 0xd0, 0x65, 0x3d, 0xf9, 0xdd, 0x03, 0x3e,
  0xd1, 0x6c, 0xd7, 0x3e, 0x1c, 0xec, 0xe2, 0x3e, 0x30, 0xf3, 0x53, 0x3d,
  0xbf, 0x21, 0x03, 0x3e, 0x72, 0x71, 0x72, 0x3e, 0x9e, 0xdb, 0x05, 0x3d,
  0x3d, 0x46, 0xfd, 0xbd, 0xdd, 0x79, 0xaa, 0xbe, 0xe7, 0xdb, 0x84, 0xbe,
  0x78, 0xb8, 0x6a, 0x3e, 0x6c, 0x9a, 0x9a, 0x3e, 0x5b, 0x7c, 0x50, 0xbe,
  0xd3, 0x0d, 0x41, 0xbd, 0x0e, 0xc0, 0x63, 0x3e, 0x1f, 0x61, 0x5f, 0x3e,
  0xf8, 0x8f, 0xda, 0xbd, 0x27, 0x2b, 0x1c, 0x3e, 0x11, 0x05, 0x8d, 0xbe,
  0x9b, 0x79, 0xa2, 0x3e, 0xdf, 0x4b, 0x91, 0x3e, 0x18, 0x51, 0x8a, 0x3e,
  0xba, 0x2e, 0x80, 0x3d, 0xd6, 0x97, 0xd0, 0xbd, 0x40, 0xcb, 0x35, 0x3e,
  0xd6, 0x99, 0xf3, 0x3d, 0x95, 0x45, 0x95, 0x3d, 0xd8, 0x83, 0x74, 0xbe,
  0xef, 0xf2, 0x89, 0xbe, 0x20, 0xce, 0x62, 0x3e, 0xd2, 0xff, 0xa5, 0xbe,
  0x90, 0xe4, 0x9a, 0xbe, 0x2d, 0xbd, 0x79, 0xbd, 0xb3, 0x9c, 0xfa, 0x3d,
  0x02, 0x97, 0xc2, 0xbe, 0x5a, 0xd3, 0x80, 0xbc, 0x0d, 0x7e, 0x7e, 0x3d,
  0x6d, 0x4e, 0xaa, 0xbe, 0xb9, 0xf1, 0x8a, 0xbe, 0x6e, 0xc2, 0xbc, 0xbe,
  0x98, 0x7b, 0x65, 0xbe, 0xce, 0xc5, 0xae, 0xbe, 0x2c, 0x53, 0xf5, 0xbc,
  0xfa, 0x74, 0x9f, 0x3d, 0xd3, 0x95, 0xec, 0x3d, 0xf9, 0xe0, 0x80, 0xbe,
  0x3d, 0xfc, 0x36, 0xbe, 0x98, 0x09, 0xcd, 0xbe, 0x31, 0x4b, 0x61, 0xbe,
  0x00, 0xf8, 0x87, 0xbd, 0x31, 0xd2, 0xcc, 0xbe, 0xc9, 0x48, 0x8d, 0x3d,
  0x7a, 0x91, 0x23, 0x3e, 0xea, 0xfa, 0xad, 0xbd, 0x39, 0x54, 0xce, 0xbe,
  0x1f, 0xc9, 0x80, 0xbe, 0x54, 0x57, 0x0a, 0x3e, 0xeb, 0x83, 0x81, 0xbe,
  0x55, 0xc7, 0x32, 0xbe, 0xf0, 0xf1, 0x8e, 0x3d, 0x7f, 0xb8, 0x4b, 0x3e,
  0x02, 0x1f, 0x2d, 0xbe, 0x63, 0x69, 0x3c, 0x3d, 0x30, 0xfc, 0x99, 0xbe,
  0xf3, 0x79, 0xbc, 0x3e, 0x92, 0x64, 0xaa, 0x3e, 0x5b, 0x26, 0xe7, 0xbe,
  0x80, 0x8c, 0xc9, 0xbe, 0x58, 0x13, 0xe5, 0x3d, 0xeb, 0xa9, 0x50, 0x3d,
  0xfe, 0xfe, 0xff, 0xff, 0x30, 0x00, 0x00, 0x00, 0x04, 0x00, 0x00, 0x00,
  0x08, 0x00, 0x00, 0x00, 0x30, 0x00, 0x00, 0x00, 0x18, 0x00, 0x00, 0x00,
  0x73, 0x65, 0x71, 0x75, 0x65, 0x6e, 0x74, 0x69, 0x61, 0x6c, 0x2f, 0x6f,
  0x75, 0x74, 0x70, 0x75, 0x74, 0x2f, 0x4d, 0x61, 0x74, 0x4d, 0x75, 0x6c,
  0x00, 0x00, 0x00, 0x00, 0x02, 0x00, 0x00, 0x00, 0x03, 0x00, 0x00, 0x00,
  0x4b, 0x00, 0x00, 0x00, 0xec, 0xfe, 0xff, 0xff, 0x96, 0xff, 0xff, 0xff,
  0x04, 0x00, 0x00, 0x00, 0x08, 0x00, 0x00, 0x00, 0xff, 0xff, 0xff, 0xff,
  0x4b, 0x00, 0x00, 0x00, 0x00, 0x00, 0x0e, 0x00, 0x18, 0x00, 0x08, 0x00,
  0x07, 0x00, 0x0c, 0x00, 0x10, 0x00, 0x14, 0x00, 0x0e, 0x00, 0x00, 0x00,
  0x00, 0x00, 0x00, 0x02, 0x30, 0x00, 0x00, 0x00, 0x03, 0x00, 0x00, 0x00,
  0x08, 0x00, 0x00, 0x00, 0x2c, 0x00, 0x00, 0x00, 0x18, 0x00, 0x00, 0x00,
  0x73, 0x65, 0x71, 0x75, 0x65, 0x6e, 0x74, 0x69, 0x61, 0x6c, 0x2f, 0x66,
  0x6c, 0x61, 0x74, 0x74, 0x65, 0x6e, 0x2f, 0x43, 0x6f, 0x6e, 0x73, 0x74,
  0x00, 0x00, 0x00, 0x00, 0x01, 0x00, 0x00, 0x00, 0x02, 0x00, 0x00, 0x00,
  0xb0, 0xff, 0xff, 0xff, 0x00, 0x00, 0x06, 0x00, 0x08, 0x00, 0x04, 0x00,
  0x06, 0x00, 0x00, 0x00, 0x04, 0x00, 0x00, 0x00, 0x0c, 0x00, 0x00, 0x00,
  0xfa, 0x87, 0xb1, 0x3c, 0xb2, 0xa4, 0x77, 0x3d, 0x14, 0xac, 0x5f, 0xbd,
  0xca, 0xff, 0xff, 0xff, 0x20, 0x00, 0x00, 0x00, 0x02, 0x00, 0x00, 0x00,
  0x08, 0x00, 0x00, 0x00, 0x20, 0x00, 0x00, 0x00, 0x0b, 0x00, 0x00, 0x00,
  0x6f, 0x75, 0x74, 0x70, 0x75, 0x74, 0x2f, 0x62, 0x69, 0x61, 0x73, 0x00,
  0x01, 0x00, 0x00, 0x00, 0x03, 0x00, 0x00, 0x00, 0x04, 0x00, 0x06, 0x00,
  0x04, 0x00, 0x00, 0x00, 0x00, 0x00, 0x0e, 0x00, 0x14, 0x00, 0x04, 0x00,
  0x00, 0x00, 0x08, 0x00, 0x0c, 0x00, 0x10, 0x00, 0x0e, 0x00, 0x00, 0x00,
  0x28, 0x00, 0x00, 0x00, 0x01, 0x00, 0x00, 0x00, 0x08, 0x00, 0x00, 0x00,
  0x30, 0x00, 0x00, 0x00, 0x13, 0x00, 0x00, 0x00, 0x73, 0x65, 0x72, 0x76,
  0x69, 0x6e, 0x67, 0x5f, 0x64, 0x65, 0x66, 0x61, 0x75, 0x6c, 0x74, 0x5f,
  0x78, 0x3a, 0x30, 0x00, 0x04, 0x00, 0x00, 0x00, 0x01, 0x00, 0x00, 0x00,
  0x03, 0x00, 0x00, 0x00, 0x19, 0x00, 0x00, 0x00, 0x02, 0x00, 0x00, 0x00,
  0xfc, 0xff, 0xff, 0xff, 0x04, 0x00, 0x04, 0x00, 0x04, 0x00, 0x00, 0x00
};
unsigned int __ml_dataset_model_tflite_len = 4644;
