unsigned char __ml_dataset_model_tflite[] = {
  0x1c, 0x00, 0x00, 0x00, 0x54, 0x46, 0x4c, 0x33, 0x00, 0x00, 0x12, 0x00,
  0x1c, 0x00, 0x04, 0x00, 0x08, 0x00, 0x0c, 0x00, 0x10, 0x00, 0x14, 0x00,
  0x00, 0x00, 0x18, 0x00, 0x12, 0x00, 0x00, 0x00, 0x03, 0x00, 0x00, 0x00,
  0x54, 0x00, 0x00, 0x00, 0x48, 0x00, 0x00, 0x00, 0xb4, 0x00, 0x00, 0x00,
  0x08, 0x00, 0x00, 0x00, 0x5c, 0x00, 0x00, 0x00, 0x0d, 0x00, 0x00, 0x00,
  0xac, 0x13, 0x00, 0x00, 0xa8, 0x13, 0x00, 0x00, 0xc0, 0x12, 0x00, 0x00,
  0x34, 0x12, 0x00, 0x00, 0x2c, 0x0e, 0x00, 0x00, 0x98, 0x06, 0x00, 0x00,
  0x80, 0x05, 0x00, 0x00, 0x90, 0x13, 0x00, 0x00, 0x8c, 0x13, 0x00, 0x00,
  0x88, 0x13, 0x00, 0x00, 0x84, 0x13, 0x00, 0x00, 0x80, 0x13, 0x00, 0x00,
  0x58, 0x00, 0x00, 0x00, 0x01, 0x00, 0x00, 0x00, 0x90, 0x00, 0x00, 0x00,
  0x05, 0x00, 0x00, 0x00, 0x44, 0x04, 0x00, 0x00, 0x48, 0x03, 0x00, 0x00,
  0x60, 0x02, 0x00, 0x00, 0xac, 0x01, 0x00, 0x00, 0x24, 0x01, 0x00, 0x00,
  0x01, 0x00, 0x00, 0x00, 0x0c, 0x00, 0x00, 0x00, 0x08, 0x00, 0x0c, 0x00,
  0x04, 0x00, 0x08, 0x00, 0x08, 0x00, 0x00, 0x00, 0x08, 0x00, 0x00, 0x00,
  0x0c, 0x00, 0x00, 0x00, 0x13, 0x00, 0x00, 0x00, 0x6d, 0x69, 0x6e, 0x5f,
  0x72, 0x75, 0x6e, 0x74, 0x69, 0x6d, 0x65, 0x5f, 0x76, 0x65, 0x72, 0x73,
  0x69, 0x6f, 0x6e, 0x00, 0xc6, 0xed, 0xff, 0xff, 0x04, 0x00, 0x00, 0x00,
  0x10, 0x00, 0x00, 0x00, 0x31, 0x2e, 0x35, 0x2e, 0x30, 0x00, 0x00, 0x00,
  0x00, 0x00, 0x00, 0x00, 0x00, 0x00, 0x00, 0x00, 0x0f, 0x00, 0x00, 0x00,
  0x4d, 0x4c, 0x49, 0x52, 0x20, 0x43, 0x6f, 0x6e, 0x76, 0x65, 0x72, 0x74,
  0x65, 0x64, 0x2e, 0x00, 0x00, 0x00, 0x0e, 0x00, 0x18, 0x00, 0x04, 0x00,
  0x08, 0x00, 0x0c, 0x00, 0x10, 0x00, 0x14, 0x00, 0x0e, 0x00, 0x00, 0x00,
  0x48, 0x00, 0x00, 0x00, 0x3c, 0x00, 0x00, 0x00, 0x30, 0x00, 0x00, 0x00,
  0x14, 0x00, 0x00, 0x00, 0x04, 0x00, 0x00, 0x00, 0x04, 0x00, 0x00, 0x00,
  0x6d, 0x61, 0x69, 0x6e, 0x00, 0x00, 0x00, 0x00, 0x05, 0x00, 0x00, 0x00,
  0x44, 0x03, 0x00, 0x00, 0x48, 0x02, 0x00, 0x00, 0x8c, 0x01, 0x00, 0x00,
  0xc8, 0x00, 0x00, 0x00, 0x44, 0x00, 0x00, 0x00, 0x01, 0x00, 0x00, 0x00,
  0x0a, 0x00, 0x00, 0x00, 0x01, 0x00, 0x00, 0x00, 0x00, 0x00, 0x00, 0x00,
  0x0b, 0x00, 0x00, 0x00, 0x5c, 0x12, 0x00, 0x00, 0xd0, 0x11, 0x00, 0x00,
  0x38, 0x11, 0x00, 0x00, 0xa8, 0x10, 0x00, 0x00, 0x98, 0x0c, 0x00, 0x00,
  0x84, 0x04, 0x00, 0x00, 0x60, 0x03, 0x00, 0x00, 0x64, 0x02, 0x00, 0x00,
  0x7c, 0x01, 0x00, 0x00, 0xc8, 0x00, 0x00, 0x00, 0x40, 0x00, 0x00, 0x00,
  0x8e, 0xff, 0xff, 0xff, 0x00, 0x00, 0x00, 0x09, 0x04, 0x00, 0x00, 0x00,
  0x1c, 0x00, 0x00, 0x00, 0x10, 0x00, 0x00, 0x00, 0x04, 0x00, 0x00, 0x00,
  0x9a, 0xee, 0xff, 0xff, 0x00, 0x00, 0x80, 0x3f, 0x01, 0x00, 0x00, 0x00,
  0x0a, 0x00, 0x00, 0x00, 0x01, 0x00, 0x00, 0x00, 0x09, 0x00, 0x00, 0x00,
  0xfa, 0xfc, 0xff, 0xff, 0x00, 0x00, 0x00, 0x19, 0x01, 0x00, 0x00, 0x00,
  0x1a, 0xee, 0xff, 0xff, 0x20, 0x00, 0x00, 0x00, 0x0b, 0x00, 0x00, 0x00,
  0x08, 0x00, 0x00, 0x00, 0x20, 0x00, 0x00, 0x00, 0x08, 0x00, 0x00, 0x00,
  0x49, 0x64, 0x65, 0x6e, 0x74, 0x69, 0x74, 0x79, 0x00, 0x00, 0x00, 0x00,
  0x02, 0x00, 0x00, 0x00, 0x01, 0x00, 0x00, 0x00, 0x03, 0x00, 0x00, 0x00,
  0x54, 0xee, 0xff, 0xff, 0x00, 0x00, 0x0e, 0x00, 0x18, 0x00, 0x08, 0x00,
  0x0c, 0x00, 0x10, 0x00, 0x07, 0x00, 0x14, 0x00, 0x0e, 0x00, 0x00, 0x00,
  0x00, 0x00, 0x00, 0x08, 0x03, 0x00, 0x00, 0x00, 0x18, 0x00, 0x00, 0x00,
  0x0c, 0x00, 0x00, 0x00, 0x04, 0x00, 0x00, 0x00, 0x34, 0xee, 0xff, 0xff,
  0x01, 0x00, 0x00, 0x00, 0x09, 0x00, 0x00, 0x00, 0x03, 0x00, 0x00, 0x00,
  0x08, 0x00, 0x00, 0x00, 0x03, 0x00, 0x00, 0x00, 0x02, 0x00, 0x00, 0x00,
  0x7e, 0xfd, 0xff, 0xff, 0x00, 0x00, 0x00, 0x09, 0x01, 0x00, 0x00, 0x00,
  0x9e, 0xee, 0xff, 0xff, 0x60, 0x00, 0x00, 0x00, 0x0a, 0x00, 0x00, 0x00,
  0x08, 0x00, 0x00, 0x00, 0x60, 0x00, 0x00, 0x00, 0x4b, 0x00, 0x00, 0x00,
  0x73, 0x65, 0x71, 0x75, 0x65, 0x6e, 0x74, 0x69, 0x61, 0x6c, 0x2f, 0x6f,
  0x75, 0x74, 0x70, 0x75, 0x74, 0x2f, 0x42, 0x69, 0x61, 0x73, 0x41, 0x64,
  0x64, 0x3b, 0x53, 0x74, 0x61, 0x74, 0x65, 0x66, 0x75, 0x6c, 0x50, 0x61,
  0x72, 0x74, 0x69, 0x74, 0x69, 0x6f, 0x6e, 0x65, 0x64, 0x43, 0x61, 0x6c,
  0x6c, 0x2f, 0x73, 0x65, 0x71, 0x75, 0x65, 0x6e, 0x74, 0x69, 0x61, 0x6c,
  0x2f, 0x6f, 0x75, 0x74, 0x70, 0x75, 0x74, 0x2f, 0x42, 0x69, 0x61, 0x73,
  0x41, 0x64, 0x64, 0x00, 0x02, 0x00, 0x00, 0x00, 0x01, 0x00, 0x00, 0x00,
  0x03, 0x00, 0x00, 0x00, 0x18, 0xef, 0xff, 0xff, 0x00, 0x00, 0x0a, 0x00,
  0x10, 0x00, 0x04, 0x00, 0x08, 0x00, 0x0c, 0x00, 0x0a, 0x00, 0x00, 0x00,
  0x02, 0x00, 0x00, 0x00, 0x10, 0x00, 0x00, 0x00, 0x04, 0x00, 0x00, 0x00,
  0x01, 0x00, 0x00, 0x00, 0x08, 0x00, 0x00, 0x00, 0x02, 0x00, 0x00, 0x00,
  0x07, 0x00, 0x00, 0x00, 0x01, 0x00, 0x00, 0x00, 0x2e, 0xfe, 0xff, 0xff,
  0x00, 0x00, 0x00, 0x16, 0x01, 0x00, 0x00, 0x00, 0x4e, 0xef, 0xff, 0xff,
  0x64, 0x00, 0x00, 0x00, 0x09, 0x00, 0x00, 0x00, 0x08, 0x00, 0x00, 0x00,
  0x64, 0x00, 0x00, 0x00, 0x4d, 0x00, 0x00, 0x00, 0x73, 0x65, 0x71, 0x75,
  0x65, 0x6e, 0x74, 0x69, 0x61, 0x6c, 0x2f, 0x66, 0x6c, 0x61, 0x74, 0x74,
  0x65, 0x6e, 0x2f, 0x52, 0x65, 0x73, 0x68, 0x61, 0x70, 0x65, 0x3b, 0x53,
  0x74, 0x61, 0x74, 0x65, 0x66, 0x75, 0x6c, 0x50, 0x61, 0x72, 0x74, 0x69,
  0x74, 0x69, 0x6f, 0x6e, 0x65, 0x64, 0x43, 0x61, 0x6c, 0x6c, 0x2f, 0x73,
  0x65, 0x71, 0x75, 0x65, 0x6e, 0x74, 0x69, 0x61, 0x6c, 0x2f, 0x66, 0x6c,
  0x61, 0x74, 0x74, 0x65, 0x6e, 0x2f, 0x52, 0x65, 0x73, 0x68, 0x61, 0x70,
  0x65, 0x00, 0x00, 0x00, 0x02, 0x00, 0x00, 0x00, 0x01, 0x00, 0x00, 0x00,
  0x4b, 0x00, 0x00, 0x00, 0xcc, 0xef, 0xff, 0xff, 0x00, 0x00, 0x0e, 0x00,
  0x1a, 0x00, 0x08, 0x00, 0x0c, 0x00, 0x10, 0x00, 0x07, 0x00, 0x14, 0x00,
  0x0e, 0x00, 0x00, 0x00, 0x00, 0x00, 0x00, 0x05, 0x01, 0x00, 0x00, 0x00,
  0x3c, 0x00, 0x00, 0x00, 0x30, 0x00, 0x00, 0x00, 0x14, 0x00, 0x00, 0x00,
  0x00, 0x00, 0x0e, 0x00, 0x18, 0x00, 0x17, 0x00, 0x10, 0x00, 0x0c, 0x00,
  0x08, 0x00, 0x04, 0x00, 0x0e, 0x00, 0x00, 0x00, 0x03, 0x00, 0x00, 0x00,
  0x01, 0x00, 0x00, 0x00, 0x03, 0x00, 0x00, 0x00, 0x01, 0x00, 0x00, 0x00,
  0x00, 0x00, 0x00, 0x01, 0x01, 0x00, 0x00, 0x00, 0x07, 0x00, 0x00, 0x00,
  0x01, 0x00, 0x00, 0x00, 0x06, 0x00, 0x00, 0x00, 0x12, 0xff, 0xff, 0xff,
  0x00, 0x00, 0x00, 0x11, 0x01, 0x00, 0x00, 0x00, 0x32, 0xf0, 0xff, 0xff,
  0x70, 0x00, 0x00, 0x00, 0x08, 0x00, 0x00, 0x00, 0x08, 0x00, 0x00, 0x00,
  0x78, 0x00, 0x00, 0x00, 0x59, 0x00, 0x00, 0x00, 0x73, 0x65, 0x71, 0x75,
  0x65, 0x6e, 0x74, 0x69, 0x61, 0x6c, 0x2f, 0x6d, 0x61, 0x78, 0x5f, 0x70,
  0x6f, 0x6f, 0x6c, 0x69, 0x6e, 0x67, 0x32, 0x64, 0x2f, 0x4d, 0x61, 0x78,
  0x50, 0x6f, 0x6f, 0x6c, 0x3b, 0x53, 0x74, 0x61, 0x74, 0x65, 0x66, 0x75,
  0x6c, 0x50, 0x61, 0x72, 0x74, 0x69, 0x74, 0x69, 0x6f, 0x6e, 0x65, 0x64,
  0x43, 0x61, 0x6c, 0x6c, 0x2f, 0x73, 0x65, 0x71, 0x75, 0x65, 0x6e, 0x74,
  0x69, 0x61, 0x6c, 0x2f, 0x6d, 0x61, 0x78, 0x5f, 0x70, 0x6f, 0x6f, 0x6c,
  0x69, 0x6e, 0x67, 0x32, 0x64, 0x2f, 0x4d, 0x61, 0x78, 0x50, 0x6f, 0x6f,
  0x6c, 0x00, 0x00, 0x00, 0x04, 0x00, 0x00, 0x00, 0x01, 0x00, 0x00, 0x00,
  0x01, 0x00, 0x00, 0x00, 0x19, 0x00, 0x00, 0x00, 0x03, 0x00, 0x00, 0x00,
  0xc4, 0xf0, 0xff, 0xff, 0x00, 0x00, 0x0e, 0x00, 0x16, 0x00, 0x00, 0x00,
  0x08, 0x00, 0x0c, 0x00, 0x07, 0x00, 0x10, 0x00, 0x0e, 0x00, 0x00, 0x00,
  0x00, 0x00, 0x00, 0x01, 0x2c, 0x00, 0x00, 0x00, 0x20, 0x00, 0x00, 0x00,
  0x10, 0x00, 0x00, 0x00, 0x00, 0x00, 0x0a, 0x00, 0x0c, 0x00, 0x00, 0x00,
  0x04, 0x00, 0x08, 0x00, 0x0a, 0x00, 0x00, 0x00, 0x01, 0x00, 0x00, 0x00,
  0x01, 0x00, 0x00, 0x00, 0x01, 0x00, 0x00, 0x00, 0x06, 0x00, 0x00, 0x00,
  0x03, 0x00, 0x00, 0x00, 0x00, 0x00, 0x00, 0x00, 0x04, 0x00, 0x00, 0x00,
  0x05, 0x00, 0x00, 0x00, 0x00, 0x00, 0x0a, 0x00, 0x0c, 0x00, 0x07, 0x00,
  0x00, 0x00, 0x08, 0x00, 0x0a, 0x00, 0x00, 0x00, 0x00, 0x00, 0x00, 0x03,
  0x01, 0x00, 0x00, 0x00, 0x2a, 0xf1, 0xff, 0xff, 0xec, 0x00, 0x00, 0x00,
  0x07, 0x00, 0x00, 0x00, 0x08, 0x00, 0x00, 0x00, 0xf4, 0x00, 0x00, 0x00,
  0xd7, 0x00, 0x00, 0x00, 0x73, 0x65, 0x71, 0x75, 0x65, 0x6e, 0x74, 0x69,
  0x61, 0x6c, 0x2f, 0x63, 0x6f, 0x6e, 0x76, 0x32, 0x64, 0x2f, 0x42, 0x69,
  0x61, 0x73, 0x41, 0x64, 0x64, 0x3b, 0x53, 0x74, 0x61, 0x74, 0x65, 0x66,
  0x75, 0x6c, 0x50, 0x61, 0x72, 0x74, 0x69, 0x74, 0x69, 0x6f, 0x6e, 0x65,
  0x64, 0x43, 0x61, 0x6c, 0x6c, 0x2f, 0x73, 0x65, 0x71, 0x75, 0x65, 0x6e,
  0x74, 0x69, 0x61, 0x6c, 0x2f, 0x63, 0x6f, 0x6e, 0x76, 0x32, 0x64, 0x2f,
  0x42, 0x69, 0x61, 0x73, 0x41, 0x64, 0x64, 0x3b, 0x73, 0x65, 0x71, 0x75,
  0x65, 0x6e, 0x74, 0x69, 0x61, 0x6c, 0x2f, 0x63, 0x6f, 0x6e, 0x76, 0x32,
  0x64, 0x2f, 0x43, 0x6f, 0x6e, 0x76, 0x32, 0x44, 0x3b, 0x53, 0x74, 0x61,
  0x74, 0x65, 0x66, 0x75, 0x6c, 0x50, 0x61, 0x72, 0x74, 0x69, 0x74, 0x69,
  0x6f, 0x6e, 0x65, 0x64, 0x43, 0x61, 0x6c, 0x6c, 0x2f, 0x73, 0x65, 0x71,
  0x75, 0x65, 0x6e, 0x74, 0x69, 0x61, 0x6c, 0x2f, 0x63, 0x6f, 0x6e, 0x76,
  0x32, 0x64, 0x2f, 0x43, 0x6f, 0x6e, 0x76, 0x32, 0x44, 0x3b, 0x53, 0x74,
  0x61, 0x74, 0x65, 0x66, 0x75, 0x6c, 0x50, 0x61, 0x72, 0x74, 0x69, 0x74,
  0x69, 0x6f, 0x6e, 0x65, 0x64, 0x43, 0x61, 0x6c, 0x6c, 0x2f, 0x73, 0x65,
  0x71, 0x75, 0x65, 0x6e, 0x74, 0x69, 0x61, 0x6c, 0x2f, 0x63, 0x6f, 0x6e,
  0x76, 0x32, 0x64, 0x2f, 0x42, 0x69, 0x61, 0x73, 0x41, 0x64, 0x64, 0x2f,
  0x52, 0x65, 0x61, 0x64, 0x56, 0x61, 0x72, 0x69, 0x61, 0x62, 0x6c, 0x65,
  0x4f, 0x70, 0x31, 0x00, 0x04, 0x00, 0x00, 0x00, 0x01, 0x00, 0x00, 0x00,
  0x03, 0x00, 0x00, 0x00, 0x19, 0x00, 0x00, 0x00, 0x03, 0x00, 0x00, 0x00,
  0xec, 0xf1, 0xff, 0xff, 0xd6, 0xf2, 0xff, 0xff, 0x04, 0x00, 0x00, 0x00,
  0x0c, 0x00, 0x00, 0x00, 0x5d, 0xe8, 0x84, 0xbd, 0xed, 0x48, 0xca, 0xbc,
  0x3d, 0xad, 0x0c, 0xbd, 0x4a, 0xf2, 0xff, 0xff, 0xec, 0x00, 0x00, 0x00,
  0x06, 0x00, 0x00, 0x00, 0x08, 0x00, 0x00, 0x00, 0xe8, 0x00, 0x00, 0x00,
  0xd6, 0x00, 0x00, 0x00, 0x73, 0x65, 0x71, 0x75, 0x65, 0x6e, 0x74, 0x69,
  0x61, 0x6c, 0x2f, 0x63, 0x6f, 0x6e, 0x76, 0x32, 0x64, 0x2f, 0x42, 0x69,
  0x61, 0x73, 0x41, 0x64, 0x64, 0x3b, 0x53, 0x74, 0x61, 0x74, 0x65, 0x66,
  0x75, 0x6c, 0x50, 0x61, 0x72, 0x74, 0x69, 0x74, 0x69, 0x6f, 0x6e, 0x65,
  0x64, 0x43, 0x61, 0x6c, 0x6c, 0x2f, 0x73, 0x65, 0x71, 0x75, 0x65, 0x6e,
  0x74, 0x69, 0x61, 0x6c, 0x2f, 0x63, 0x6f, 0x6e, 0x76, 0x32, 0x64, 0x2f,
  0x42, 0x69, 0x61, 0x73, 0x41, 0x64, 0x64, 0x3b, 0x73, 0x65, 0x71, 0x75,
  0x65, 0x6e, 0x74, 0x69, 0x61, 0x6c, 0x2f, 0x63, 0x6f, 0x6e, 0x76, 0x32,
  0x64, 0x2f, 0x43, 0x6f, 0x6e, 0x76, 0x32, 0x44, 0x3b, 0x53, 0x74, 0x61,
  0x74, 0x65, 0x66, 0x75, 0x6c, 0x50, 0x61, 0x72, 0x74, 0x69, 0x74, 0x69,
  0x6f, 0x6e, 0x65, 0x64, 0x43, 0x61, 0x6c, 0x6c, 0x2f, 0x73, 0x65, 0x71,
  0x75, 0x65, 0x6e, 0x74, 0x69, 0x61, 0x6c, 0x2f, 0x63, 0x6f, 0x6e, 0x76,
  0x32, 0x64, 0x2f, 0x43, 0x6f, 0x6e, 0x76, 0x32, 0x44, 0x3b, 0x53, 0x74,
  0x61, 0x74, 0x65, 0x66, 0x75, 0x6c, 0x50, 0x61, 0x72, 0x74, 0x69, 0x74,
  0x69, 0x6f, 0x6e, 0x65, 0x64, 0x43, 0x61, 0x6c, 0x6c, 0x2f, 0x73, 0x65,
  0x71, 0x75, 0x65, 0x6e, 0x74, 0x69, 0x61, 0x6c, 0x2f, 0x63, 0x6f, 0x6e,
  0x76, 0x32, 0x64, 0x2f, 0x42, 0x69, 0x61, 0x73, 0x41, 0x64, 0x64, 0x2f,
  0x52, 0x65, 0x61, 0x64, 0x56, 0x61, 0x72, 0x69, 0x61, 0x62, 0x6c, 0x65,
  0x4f, 0x70, 0x00, 0x00, 0x01, 0x00, 0x00, 0x00, 0x03, 0x00, 0x00, 0x00,
  0x00, 0xf3, 0xff, 0xff, 0xea, 0xf3, 0xff, 0xff, 0x04, 0x00, 0x00, 0x00,
  0x08, 0x07, 0x00, 0x00, 0x05, 0xbf, 0xef, 0x3e, 0x1f, 0xd2, 0xc5, 0xbe,
  0x87, 0xb0, 0x23, 0xbd, 0x19, 0xd5, 0x8a, 0xbc, 0x43, 0xee, 0x9c, 0xbe,
  0x26, 0xc3, 0x98, 0x3e, 0x0f, 0xa5, 0xdc, 0xbc, 0x8d, 0x32, 0x28, 0x3d,
  0x66, 0xde, 0xa5, 0xbb, 0xb1, 0x7e, 0xd1, 0xbd, 0x9b, 0xec, 0x06, 0x3e,
  0x98, 0xf5, 0x07, 0xbe, 0x58, 0x7a, 0x12, 0xbe, 0x4e, 0xc5, 0xe8, 0xbc,
  0x1f, 0x32, 0xf9, 0x3d, 0xf7, 0x2e, 0xbd, 0xbe, 0x3f, 0x10, 0x64, 0x3e,
  0xc9, 0x03, 0x02, 0xbe, 0x27, 0xae, 0x15, 0xbf, 0x8e, 0xa5, 0x98, 0x3d,
  0x98, 0x4d, 0xc5, 0xbc, 0xa7, 0x54, 0x92, 0x3e, 0xb4, 0x0e, 0xdc, 0x3e,
  0x43, 0xab, 0x78, 0x3e, 0xa7, 0x6d, 0x05, 0x3f, 0x52, 0x6c, 0x80, 0x3e,
  0x6c, 0x53, 0x12, 0xbe, 0x1f, 0xd4, 0x1d, 0xbe, 0x7a, 0x5c, 0x27, 0xbe,
  0xa3, 0x82, 0x36, 0x3f, 0x28, 0x4c, 0x47, 0xbe, 0x8b, 0x57, 0xf7, 0x3e,
  0xa4, 0xa9, 0xc8, 0x3d, 0xa0, 0xed, 0x7e, 0x3e, 0x22, 0xe9, 0x52, 0xbe,
  0x75, 0xc4, 0x95, 0x3e, 0xed, 0xc7, 0x58, 0xbf, 0x44, 0xee, 0xec, 0xbd,
  0xd4, 0xfa, 0x09, 0xbf, 0x94, 0x58, 0x8d, 0x3e, 0xde, 0x57, 0x02, 0xbf,
  0x0d, 0x47, 0x3f, 0xbd, 0x5a, 0x26, 0x4e, 0xbf, 0xbd, 0x91, 0xe6, 0xbc,
  0x56, 0x07, 0x1b, 0xbf, 0x65, 0x74, 0xb0, 0x3d, 0xee, 0x75, 0xd0, 0xbe,
  0xa8, 0x8e, 0x24, 0x3f, 0xf0, 0xb5, 0x03, 0xbf, 0x4f, 0x13, 0x2d, 0x3f,
  0x80, 0x99, 0x8d, 0x3d, 0x6f, 0x61, 0xf0, 0xbe, 0xd1, 0x9b, 0x95, 0xbd,
  0x8e, 0xb6, 0x35, 0x3e, 0xe1, 0x59, 0xac, 0xbe, 0x28, 0x1d, 0xf5, 0xbd,
  0x6f, 0x0d, 0xc9, 0xbd, 0xd8, 0x1f, 0x20, 0x3e, 0x58, 0x58, 0x22, 0x3e,
  0xd0, 0x2f, 0xd0, 0xbe, 0xe2, 0xc3, 0xfb, 0xbc, 0x74, 0x4b, 0x17, 0x3e,
  0x4b, 0x16, 0x08, 0x3e, 0x4b, 0x23, 0x18, 0xbf, 0x91, 0x7b, 0x6a, 0x3e,
  0xc7, 0x0d, 0x77, 0x3e, 0x1e, 0x02, 0x7c, 0xbd, 0x5c, 0x7f, 0x70, 0xbe,
  0xfe, 0x2a, 0xc3, 0x3b, 0x39, 0x45, 0x6f, 0x3e, 0x9e, 0xff, 0x07, 0x3e,
  0x55, 0x61, 0x43, 0x3e, 0x52, 0xde, 0x84, 0x3e, 0xbf, 0xcb, 0xfb, 0xbe,
  0x2f, 0xc5, 0xeb, 0x3e, 0x34, 0x76, 0xc8, 0x3e, 0x44, 0xfd, 0xc6, 0x3e,
  0x3d, 0x6d, 0xe8, 0x3e, 0x6c, 0xec, 0xc4, 0x3e, 0x8e, 0xfd, 0x0e, 0x3f,
  0xfe, 0x18, 0x9d, 0xbe, 0xd9, 0xab, 0xbb, 0xbc, 0x2d, 0x91, 0xc0, 0xbe,
  0x51, 0x19, 0x9d, 0x3e, 0x19, 0xc0, 0xe9, 0xbe, 0xaf, 0x47, 0xfd, 0x3e,
  0xe3, 0x21, 0x00, 0xbe, 0xf8, 0x72, 0xea, 0x3e, 0x03, 0x0b, 0xe7, 0x3d,
  0xe8, 0x87, 0xf4, 0x3d, 0x81, 0x68, 0x5c, 0xbe, 0xc0, 0xb3, 0x8d, 0x3d,
  0xa5, 0x37, 0x08, 0x3f, 0xd4, 0xf8, 0x79, 0x3d, 0x9a, 0x06, 0x7f, 0xbd,
  0xf7, 0x45, 0xcc, 0x3e, 0x4b, 0xf5, 0xef, 0xbe, 0x72, 0xbc, 0x2d, 0x3e,
  0x4f, 0xe1, 0xe1, 0xbe, 0xc4, 0x36, 0x23, 0x3f, 0xbd, 0xc5, 0xe1, 0x3d,
  0xb5, 0x27, 0x82, 0x3e, 0x7b, 0x36, 0x56, 0xbd, 0x79, 0x70, 0x57, 0x3e,
  0x2a, 0x5c, 0x14, 0xbe, 0x42, 0x21, 0xa5, 0x3e, 0x8e, 0x6e, 0x72, 0x3e,
  0x29, 0x48, 0x03, 0xbe, 0xfc, 0xa6, 0xb0, 0xbd, 0xb7, 0x63, 0xcd, 0xbd,
  0xd3, 0x5f, 0x0f, 0xbe, 0xa2, 0x7d, 0x03, 0xbe, 0xcc, 0x16, 0x40, 0x3e,
  0x68, 0x63, 0x5c, 0x3d, 0x47, 0xad, 0x3d, 0xbf, 0x6e, 0xaf, 0xce, 0xbe,
  0xf2, 0xc1, 0x09, 0x3e, 0xc5, 0xe2, 0x4b, 0x3e, 0x7a, 0x5f, 0x17, 0xbc,
  0xb2, 0x6f, 0x0e, 0x3d, 0x80, 0x60, 0xed, 0x3e, 0xc5, 0xcf, 0x69, 0xbe,
  0xc2, 0xf1, 0x1d, 0x3e, 0xca, 0xf0, 0x00, 0x3e, 0xa5, 0xa0, 0x9e, 0x3d,
  0x38, 0x63, 0x82, 0x3d, 0xa8, 0x88, 0x9f, 0xbe, 0xdc, 0x97, 0x1e, 0x3e,
  0x2a, 0xd0, 0xd4, 0xbe, 0x5f, 0xb5, 0x38, 0xbe, 0xc8, 0xac, 0x82, 0xbc,
  0xeb, 0xbe, 0x52, 0xbe, 0x7a, 0x6d, 0xf1, 0xbd, 0x20, 0x41, 0x23, 0x3e,
  0xf1, 0x38, 0xcf, 0xbe, 0x65, 0x2f, 0x69, 0x3e, 0xae, 0xae, 0x58, 0xbf,
  0x64, 0x62, 0x3b, 0x3e, 0xab, 0x9f, 0x3e, 0xbf, 0x16, 0x7c, 0x51, 0x3d,
  0x1a, 0xc5, 0x12, 0xbf, 0x12, 0xb6, 0x3d, 0xbe, 0x38, 0x5d, 0x44, 0xbf,
  0xe9, 0x5b, 0xdf, 0x3e, 0xdb, 0xa7, 0x48, 0x3a, 0x04, 0x78, 0x00, 0xbe,
  0xdb, 0x00, 0x12, 0xbf, 0x46, 0x48, 0xa8, 0xbe, 0x91, 0xce, 0x81, 0xbe,
  0x52, 0x8f, 0xa4, 0x3e, 0xbb, 0x8a, 0xb0, 0xbe, 0x1b, 0x07, 0x08, 0xbf,
  0x67, 0x22, 0x05, 0x3d, 0x7a, 0xce, 0x16, 0x3d, 0xa1, 0xa8, 0x88, 0x3e,
  0xdd, 0xaf, 0x77, 0xbe, 0x35, 0x2b, 0x1f, 0x3e, 0xfe, 0xfa, 0xbb, 0x3e,
  0xcb, 0x8d, 0x0e, 0x3d, 0x72, 0x3d, 0x55, 0x3e, 0xed, 0xed, 0xcd, 0xbe,
  0xcc, 0x36, 0x08, 0x3f, 0xcd, 0x50, 0xfe, 0x3c, 0x1f, 0x5e, 0x4e, 0xbf,
  0x24, 0x1d, 0xd2, 0x3d, 0x6e, 0xec, 0xcb, 0x3e, 0x6e, 0xcd, 0x5c, 0xbd,
  0x49, 0x18, 0xfb, 0x3e, 0xcf, 0x8f, 0x76, 0xbd, 0xb6, 0x08, 0xe0, 0x3d,
  0xc5, 0x60, 0x8f, 0x3e, 0x61, 0x49, 0xc1, 0x3e, 0x5b, 0xaa, 0x2c, 0x3e,
  0xfa, 0x05, 0x8f, 0x3e, 0x7d, 0x8b, 0x53, 0x3d, 0x42, 0x01, 0x1d, 0x3e,
  0x60, 0x2f, 0xe0, 0x3d, 0x91, 0xae, 0x1c, 0xbe, 0x71, 0xc4, 0x5f, 0x3d,
  0x7b, 0xd4, 0x2f, 0xbe, 0xa9, 0x56, 0xf2, 0x3d, 0x4c, 0xe9, 0x80, 0xbd,
  0x88, 0x3c, 0xf0, 0x3e, 0x4a, 0xe0, 0x9b, 0x3d, 0xa1, 0xa0, 0xca, 0xbd,
  0x28, 0x3d, 0x43, 0x3e, 0xfd, 0x74, 0xb0, 0x3e, 0x42, 0xc6, 0x04, 0xbf,
  0x79, 0x4a, 0x63, 0xbe, 0xcd, 0x36, 0xb9, 0x3d, 0x1d, 0xab, 0x80, 0x3e,
  0xa2, 0x66, 0x56, 0x3e, 0xe7, 0xae, 0x62, 0x3d, 0xd5, 0xc0, 0xaa, 0xbd,
  0x2d, 0xe1, 0x45, 0x3f, 0x41, 0x14, 0x21, 0xbe, 0x1b, 0x69, 0x0c, 0x3f,
  0x89, 0x6e, 0xce, 0xbe, 0xc4, 0x76, 0x4f, 0xbe, 0xbe, 0x50, 0x69, 0x3e,
  0xac, 0x4d, 0xaf, 0xbe, 0x30, 0xbc, 0x3a, 0xbe, 0x3d, 0xb3, 0x44, 0x3e,
  0x17, 0x0d, 0x39, 0xbf, 0x22, 0xa1, 0x43, 0x3e, 0x47, 0xe7, 0x58, 0x3e,
  0x73, 0xaf, 0x18, 0xbe, 0xb6, 0xd3, 0x23, 0x3e, 0x1a, 0xfe, 0xae, 0xbc,
  0xbb, 0xbf, 0x18, 0x3e, 0xda, 0xb3, 0x93, 0xbd, 0x01, 0x92, 0xfb, 0xbd,
  0x1f, 0xeb, 0x77, 0xbe, 0x7a, 0xb0, 0xab, 0xbd, 0xcc, 0xe4, 0x1f, 0x3c,
  0x19, 0xfe, 0x90, 0x3e, 0x95, 0xf5, 0xb0, 0xbe, 0x9f, 0xa1, 0xa7, 0x3e,
  0x7a, 0xd8, 0x08, 0x3e, 0x94, 0x74, 0xa8, 0x3b, 0xcf, 0x17, 0x27, 0x3d,
  0x3c, 0xd2, 0x4a, 0x3e, 0xdf, 0x15, 0x32, 0xbe, 0xb1, 0x7d, 0xb1, 0x3e,
  0xd2, 0x92, 0x63, 0xbe, 0xf3, 0x92, 0x09, 0x3f, 0x36, 0x5f, 0x35, 0x3d,
  0x98, 0x23, 0x36, 0xbf, 0x2b, 0xca, 0xe2, 0x3d, 0x1c, 0xe0, 0x0d, 0xbf,
  0xa5, 0x0e, 0xd9, 0x3e, 0x48, 0x4e, 0xdd, 0xbe, 0x87, 0x55, 0x68, 0x3e,
  0xb8, 0x1f, 0x24, 0xbf, 0x77, 0x11, 0x58, 0x3e, 0x68, 0xf3, 0x93, 0xbc,
  0x7a, 0x36, 0xf8, 0x3e, 0xf5, 0xed, 0x8c, 0xbe, 0x45, 0xc4, 0x90, 0x3e,
  0x5e, 0x0e, 0xa7, 0xbe, 0x0f, 0xa1, 0x19, 0xbd, 0x86, 0x80, 0x92, 0x3d,
  0xa4, 0xe4, 0xaf, 0x3e, 0xb7, 0x39, 0x25, 0xbe, 0x70, 0xba, 0x9d, 0x3e,
  0xd8, 0xad, 0x92, 0x3c, 0x65, 0x86, 0x0f, 0x3f, 0xf3, 0xde, 0x80, 0x3e,
  0x71, 0xbd, 0x1a, 0x3e, 0x84, 0x1a, 0x94, 0x3c, 0x0b, 0xb0, 0xc4, 0xbe,
  0x70, 0x62, 0xbb, 0xbb, 0xa2, 0x39, 0x46, 0x3e, 0x2d, 0xe2, 0xa8, 0xbe,
  0x63, 0xf7, 0x51, 0x3e, 0xfa, 0xf8, 0x11, 0xbe, 0x86, 0xfe, 0x26, 0xbf,
  0x39, 0x5c, 0x13, 0x3e, 0x85, 0x78, 0x26, 0xbe, 0xfe, 0xc9, 0x88, 0x3d,
  0xac, 0x39, 0x56, 0xbe, 0x36, 0x12, 0xdd, 0xbd, 0x75, 0x09, 0x77, 0x3e,
  0xab, 0xbf, 0x93, 0x3d, 0x99, 0xe9, 0xe0, 0x3e, 0x80, 0x28, 0x0c, 0x3b,
  0xcd, 0x6a, 0x10, 0xbf, 0x55, 0xa3, 0x99, 0x3e, 0xbe, 0x80, 0x01, 0xbe,
  0xf9, 0xa4, 0x05, 0xbf, 0x36, 0x42, 0x8c, 0xbe, 0x19, 0x54, 0xb7, 0x3e,
  0xbb, 0x62, 0x32, 0xbe, 0x9c, 0x4b, 0x27, 0x3e, 0xe0, 0x5f, 0x27, 0x3e,
  0x51, 0xfb, 0x2f, 0xbe, 0x84, 0x6a, 0xbb, 0x3d, 0xac, 0x68, 0x39, 0x3f,
  0x03, 0xa8, 0xee, 0xbe, 0x82, 0x0f, 0x36, 0xbe, 0x75, 0x12, 0xec, 0xbe,
  0x5e, 0x7c, 0x88, 0xbd, 0xcc, 0x82, 0x05, 0x3f, 0x49, 0x94, 0x17, 0xbe,
  0x55, 0xd5, 0x51, 0xbe, 0x6e, 0xb1, 0xa5, 0xbe, 0xb1, 0x2a, 0xd5, 0x3e,
  0x69, 0xc7, 0xdd, 0xbe, 0xad, 0x0e, 0x07, 0x3f, 0x0a, 0xda, 0xbb, 0x3d,
  0xc7, 0xc9, 0x37, 0x3e, 0x34, 0xac, 0x07, 0xbd, 0x0a, 0x35, 0xc0, 0xbd,
  0x2b, 0xfe, 0xed, 0xbe, 0xf5, 0xdb, 0x79, 0x3e, 0xa2, 0xb9, 0x25, 0xbe,
  0x2d, 0xca, 0xa1, 0x3e, 0xd3, 0xf6, 0x04, 0xbf, 0x6d, 0x92, 0x01, 0x3f,
  0xf5, 0xb1, 0x10, 0xbc, 0x88, 0xa1, 0x09, 0x3e, 0x53, 0xbe, 0xd8, 0xbd,
  0xdb, 0xec, 0x83, 0x3e, 0x81, 0xe8, 0x6c, 0x3d, 0x9b, 0x64, 0xeb, 0x3e,
  0x97, 0x08, 0x18, 0xbe, 0xbf, 0x40, 0x19, 0xbe, 0xe7, 0xb0, 0xc6, 0x3d,
  0x50, 0x51, 0xe9, 0x3e, 0xbc, 0x67, 0x43, 0xbe, 0xc0, 0xd6, 0xa9, 0xbe,
  0x70, 0xf6, 0x9f, 0x3d, 0x10, 0xa3, 0xe9, 0x3d, 0x12, 0x44, 0xbe, 0x3c,
  0x1e, 0xe4, 0x90, 0x3e, 0xa0, 0x35, 0x17, 0x3e, 0x28, 0x01, 0x94, 0x3e,
  0xed, 0xe4, 0xa7, 0x3d, 0x40, 0x5b, 0x33, 0xbe, 0xde, 0x0c, 0x2c, 0x3e,
  0x72, 0xf3, 0xd5, 0x3e, 0x55, 0x96, 0x79, 0x3e, 0xea, 0x15, 0xbb, 0xbd,
  0xaa, 0x42, 0x22, 0xbd, 0xbe, 0x99, 0xdd, 0x3d, 0x1f, 0x61, 0x09, 0xbe,
  0x40, 0xe3, 0xb0, 0x3e, 0x6c, 0xbe, 0x16, 0x3e, 0xd7, 0x30, 0xba, 0x3d,
  0xd9, 0xd1, 0x79, 0x3b, 0x65, 0x14, 0x64, 0xbe, 0x98, 0xac, 0x55, 0x3e,
  0x6d, 0xd2, 0x59, 0xbe, 0x8f, 0x5d, 0xe0, 0xbe, 0x63, 0xa4, 0xe2, 0xbe,
  0x04, 0x6f, 0x5b, 0x3f, 0x60, 0x20, 0x0b, 0xbf, 0x98, 0xc8, 0xc2, 0x3e,
  0x35, 0x68, 0x62, 0xbe, 0xf2, 0x53, 0xa9, 0x3d, 0x07, 0xa8, 0x05, 0xbf,
  0x99, 0xb1, 0x65, 0x3e, 0x92, 0x18, 0x8e, 0x3e, 0x58, 0x94, 0x0b, 0xbd,
  0x97, 0xac, 0xe9, 0xbe, 0x6a, 0x2a, 0x29, 0x3f, 0xf5, 0x07, 0x70, 0x3e,
  0xe6, 0xb1, 0xde, 0x3e, 0xec, 0x36, 0xe3, 0xbd, 0x4f, 0xea, 0x30, 0x3f,
  0xb9, 0x65, 0xc1, 0x3e, 0x10, 0x8d, 0x2f, 0x3e, 0xfd, 0xf3, 0x09, 0xbe,
  0xf9, 0x59, 0xb6, 0xbe, 0xba, 0x5a, 0xd5, 0x3e, 0x36, 0xe4, 0xa0, 0xbe,
  0xc1, 0x20, 0x99, 0x3e, 0xa6, 0x2f, 0xc4, 0x3d, 0x09, 0x89, 0x63, 0x3e,
  0x0f, 0x24, 0xfa, 0xbe, 0x44, 0x86, 0xcf, 0xbb, 0x26, 0x45, 0xad, 0xbd,
  0xdb, 0x38, 0xe8, 0x3e, 0xe5, 0xa2, 0x9d, 0x3d, 0x31, 0xbe, 0xae, 0x3e,
  0x3b, 0x15, 0x81, 0xbd, 0x76, 0x98, 0xde, 0x3e, 0x52, 0x3d, 0xc8, 0xbd,
  0xf2, 0x5f, 0xfd, 0x3e, 0x16, 0xfd, 0xce, 0x3e, 0x7e, 0x3f, 0x5a, 0x3d,
  0x49, 0x48, 0x3d, 0xbe, 0x00, 0x2d, 0x35, 0x3e, 0x15, 0x44, 0x21, 0x3d,
  0x4e, 0x72, 0x8b, 0x3e, 0x9b, 0xe1, 0xd6, 0x3e, 0xd2, 0x0c, 0x7e, 0x3d,
  0x56, 0xc9, 0x28, 0xbd, 0x27, 0x89, 0x46, 0xbd, 0xca, 0x5a, 0x0a, 0x3d,
  0x84, 0x32, 0xd4, 0xbe, 0xdb, 0xde, 0x03, 0xbf, 0x32, 0xe3, 0xd2, 0xbe,
  0xcd, 0xd5, 0xb8, 0x3e, 0x40, 0x17, 0xb6, 0xbd, 0xd5, 0x4d, 0x39, 0x3e,
  0x57, 0x3f, 0x88, 0xbe, 0x49, 0xf2, 0x10, 0x3e, 0xeb, 0x61, 0xfb, 0xbe,
  0x49, 0x71, 0x1a, 0xbe, 0x89, 0x2f, 0x84, 0xbd, 0x77, 0xa8, 0x17, 0xbe,
  0xbc, 0x8f, 0xab, 0xbe, 0xf9, 0x66, 0x6d, 0x3f, 0xa5, 0xe6, 0xf1, 0xbe,
  0x5c, 0x72, 0x35, 0x3f, 0x29, 0xdf, 0x92, 0xbf, 0x4d, 0xc0, 0x00, 0x3f,
  0x5e, 0x3f, 0x2d, 0xbf, 0x75, 0xab, 0x78, 0x3f, 0x41, 0xde, 0x0c, 0x3e,
  0x8d, 0xf4, 0xf0, 0xbe, 0x4a, 0xa6, 0xcb, 0x3d, 0xbf, 0x59, 0x9d, 0x3e,
  0x89, 0xa8, 0x73, 0x3e, 0xc3, 0x59, 0xb7, 0xbe, 0x6a, 0xa3, 0x4b, 0x3e,
  0x99, 0xec, 0xf2, 0x3c, 0xcf, 0xea, 0xee, 0x3e, 0xb7, 0xb2, 0x02, 0xbe,
  0xd1, 0x8f, 0xc1, 0x3e, 0xe7, 0x0d, 0xce, 0xbd, 0x7a, 0xae, 0x2a, 0x3e,
  0x42, 0x49, 0xb2, 0xbc, 0xd2, 0xa2, 0x15, 0x3d, 0xd8, 0x3c, 0xa6, 0x3e,
  0x76, 0x68, 0x6e, 0xbb, 0x7e, 0x51, 0xef, 0xbe, 0xe5, 0x7e, 0x92, 0x3e,
  0x4e, 0x75, 0xec, 0x3e, 0xed, 0xa6, 0x62, 0x3e, 0x97, 0xa0, 0x2e, 0x3e,
  0x06, 0xd8, 0x98, 0xbe, 0x52, 0xca, 0x91, 0xbd, 0xa9, 0x68, 0xc6, 0xbe,
  0x83, 0x1a, 0x55, 0x3e, 0x30, 0x97, 0x9c, 0xbd, 0x42, 0xa7, 0x16, 0xbf,
  0x98, 0x1f, 0x43, 0x3c, 0xdd, 0x69, 0x77, 0x3e, 0x7e, 0xcc, 0x52, 0x3e,
  0x4a, 0x53, 0xb8, 0xbd, 0xc8, 0xc8, 0xc7, 0x3e, 0x5a, 0x48, 0x19, 0x3d,
  0x0e, 0xe3, 0xf6, 0xbd, 0x31, 0xe4, 0x67, 0x3e, 0x83, 0x81, 0x1c, 0xbe,
  0x4c, 0xf6, 0x02, 0x3f, 0xc0, 0x58, 0xaf, 0xbc, 0x0b, 0x5c, 0x53, 0x3f,
  0xf0, 0xbf, 0x5e, 0x3e, 0xb3, 0xb2, 0xc2, 0x3e, 0x77, 0xd7, 0x25, 0xbf,
  0x26, 0x06, 0xfc, 0xbe, 0x57, 0x21, 0x6a, 0xbe, 0xbf, 0x56, 0x23, 0x3f,
  0xca, 0x34, 0x12, 0xbf, 0xc6, 0xfb, 0x20, 0x3f, 0x00, 0x80, 0xb9, 0xbe,
  0xd4, 0x0a, 0x3f, 0x3f, 0x5a, 0xfa, 0xff, 0xff, 0x60, 0x00, 0x00, 0x00,
  0x05, 0x00, 0x00, 0x00, 0x08, 0x00, 0x00, 0x00, 0x68, 0x00, 0x00, 0x00,
  0x49, 0x00, 0x00, 0x00, 0x73, 0x65, 0x71, 0x75, 0x65, 0x6e, 0x74, 0x69,
  0x61, 0x6c, 0x2f, 0x63, 0x6f, 0x6e, 0x76, 0x32, 0x64, 0x2f, 0x43, 0x6f,
  0x6e, 0x76, 0x32, 0x44, 0x3b, 0x53, 0x74, 0x61, 0x74, 0x65, 0x66, 0x75,
  0x6c, 0x50, 0x61, 0x72, 0x74, 0x69, 0x74, 0x69, 0x6f, 0x6e, 0x65, 0x64,
  0x43, 0x61, 0x6c, 0x6c, 0x2f, 0x73, 0x65, 0x71, 0x75, 0x65, 0x6e, 0x74,
  0x69, 0x61, 0x6c, 0x2f, 0x63, 0x6f, 0x6e, 0x76, 0x32, 0x64, 0x2f, 0x43,
  0x6f, 0x6e, 0x76, 0x32, 0x44, 0x00, 0x00, 0x00, 0x04, 0x00, 0x00, 0x00,
  0x03, 0x00, 0x00, 0x00, 0x03, 0x00, 0x00, 0x00, 0x19, 0x00, 0x00, 0x00,
  0x02, 0x00, 0x00, 0x00, 0x90, 0xfa, 0xff, 0xff, 0x7a, 0xfb, 0xff, 0xff,
  0x04, 0x00, 0x00, 0x00, 0x84, 0x03, 0x00, 0x00, 0x84, 0xbd, 0x8c, 0xbe,
  0x59, 0x27, 0xc9, 0x3e, 0xbb, 0x94, 0x0a, 0x3f, 0x99, 0x25, 0x1a, 0x3f,
  0x73, 0x97, 0x52, 0xbf, 0x85, 0x10, 0xf4, 0x3e, 0xcb, 0x92, 0x99, 0x3e,
  0x66, 0x37, 0x91, 0xbe, 0xb2, 0xda, 0xb4, 0x3c, 0x8f, 0x13, 0xcf, 0xbe,
  0xad, 0x1c, 0xb3, 0xbe, 0xcf, 0x00, 0xf2, 0xbb, 0xeb, 0xd7, 0x03, 0x3f,
  0x33, 0xe5, 0x62, 0xbf, 0x4d, 0x0e, 0x3b, 0x3f, 0xee, 0xc4, 0x21, 0x3e,
  0x55, 0x5b, 0x9e, 0xbe, 0x79, 0x9a, 0xf7, 0xbd, 0xd1, 0x91, 0x90, 0x3f,
  0x30, 0x0f, 0x4b, 0x3e, 0x12, 0x92, 0x3c, 0x3e, 0x1c, 0x07, 0x9c, 0x3e,
  0x78, 0xed, 0x26, 0xbe, 0x41, 0xba, 0xe0, 0x3e, 0xdb, 0x9a, 0xf9, 0x3e,
  0xae, 0x91, 0x04, 0xbf, 0xfe, 0x72, 0xe8, 0x3e, 0x70, 0xa6, 0x10, 0x3e,
  0xe9, 0xb1, 0xf1, 0xbe, 0x59, 0x3e, 0xcc, 0x3d, 0xe3, 0xa1, 0x30, 0xbd,
  0xe6, 0x42, 0x94, 0xbd, 0xca, 0xc9, 0x28, 0x3f, 0x0f, 0x97, 0xbc, 0x3c,
  0xf2, 0xe7, 0x69, 0x3f, 0x71, 0xd7, 0x8a, 0x3e, 0x0c, 0xfb, 0x43, 0x3f,
  0xde, 0x3b, 0xe5, 0x3d, 0xb1, 0x49, 0x11, 0x3f, 0xf8, 0xd8, 0xb8, 0x3e,
  0x7e, 0x86, 0x0b, 0x3d, 0x79, 0x7c, 0xf9, 0x3e, 0xd9, 0x97, 0x9d, 0x3e,
  0x10, 0x1b, 0x4d, 0xbe, 0x03, 0xce, 0xa0, 0x3e, 0x05, 0x45, 0x05, 0xbd,
  0xf6, 0x67, 0x95, 0x3e, 0x11, 0xc5, 0xd4, 0xbe, 0x85, 0x4c, 0xc6, 0xbd,
  0xb3, 0x5b, 0x06, 0xbe, 0xfe, 0xa9, 0x0a, 0xbe, 0xfc, 0x68, 0x61, 0x3f,
  0x29, 0x75, 0x21, 0xbe, 0x5b, 0x7b, 0xbf, 0xbe, 0x38, 0x3a, 0x9a, 0x3e,
  0xc5, 0x5a, 0x19, 0xbf, 0xf4, 0x60, 0x42, 0x3d, 0xaa, 0x41, 0x08, 0x3e,
  0xf1, 0x43, 0xbe, 0x3e, 0x51, 0xea, 0x8c, 0xbe, 0x4b, 0xe0, 0x51, 0xbe,
  0x5b, 0xc9, 0xcb, 0xbe, 0x1f, 0x72, 0x96, 0xbe, 0xa1, 0xe5, 0xad, 0x3e,
  0x8c, 0x3b, 0xd7, 0xbe, 0x07, 0xed, 0x00, 0xbf, 0xf4, 0x9c, 0xfc, 0x3e,
  0xb2, 0x11, 0xdc, 0xbd, 0xb2, 0xce, 0x16, 0xbe, 0xd4, 0x29, 0x6b, 0xbd,
  0x24, 0xf3, 0x19, 0xbe, 0xe5, 0x40, 0x65, 0xbf, 0x43, 0xe1, 0xe6, 0xbe,
  0x61, 0x6e, 0xd8, 0x3d, 0xf2, 0x31, 0x49, 0xbf, 0xfa, 0x9a, 0x38, 0xbe,
  0xeb, 0x9d, 0x96, 0xbd, 0x40, 0xe3, 0xfe, 0x3e, 0x23, 0x9c, 0x28, 0xbf,
  0xcb, 0xdd, 0x0f, 0x3f, 0xc6, 0x12, 0xd4, 0x3d, 0x7d, 0xa1, 0xdc, 0xbe,
  0x4b, 0xd8, 0x0f, 0x3f, 0x6f, 0xe0, 0xd8, 0xbe, 0x89, 0x83, 0x4e, 0xbf,
  0xd5, 0x97, 0xb8, 0xbe, 0x2e, 0x00, 0x97, 0x3e, 0x91, 0x1c, 0xf1, 0xbe,
  0xc2, 0xe2, 0xb5, 0x3e, 0xe1, 0x84, 0x51, 0xbf, 0xbf, 0xcf, 0x97, 0xbf,
  0x21, 0x06, 0x8e, 0xbe, 0x8d, 0xe7, 0x74, 0x3e, 0x5f, 0xaa, 0x8a, 0xbe,
  0x64, 0xcb, 0x5f, 0xbf, 0xa3, 0x93, 0x02, 0xbf, 0x89, 0x45, 0x94, 0xbe,
  0x21, 0xd4, 0x4d, 0x3e, 0x94, 0x44, 0x5c, 0xbf, 0xea, 0xf1, 0x4f, 0xbf,
  0x06, 0x16, 0x37, 0x3e, 0xd1, 0xc0, 0xe9, 0xbe, 0x48, 0xe6, 0xf4, 0xbe,
  0xd0, 0x26, 0xdb, 0x3e, 0x25, 0xf2, 0x2e, 0xbf, 0xf5, 0xf3, 0x0c, 0x3f,
  0xf8, 0xc7, 0xcf, 0x3d, 0xdf, 0x03, 0x05, 0xbf, 0x23, 0x4b, 0x3a, 0x3c,
  0xcd, 0x28, 0x54, 0xbe, 0x34, 0x4b, 0xbe, 0xbb, 0xaf, 0x00, 0xe0, 0xbe,
  0xcf, 0xc1, 0x67, 0xbf, 0x1f, 0x17, 0x19, 0xbf, 0x08, 0x12, 0xba, 0xbd,
  0xaf, 0xcd, 0xf3, 0x3e, 0x5a, 0xfc, 0x82, 0xbf, 0xba, 0x80, 0x10, 0x3f,
  0x83, 0x71, 0x90, 0xbd, 0x77, 0xea, 0x51, 0x3d, 0xcc, 0x58, 0x34, 0xbf,
  0xdc, 0xcf, 0x0d, 0x3f, 0x99, 0xf7, 0xb7, 0xbb, 0x72, 0xd9, 0xaf, 0xbd,
  0x53, 0x01, 0x87, 0x3e, 0x92, 0x45, 0xae, 0x3e, 0xae, 0x4a, 0xf0, 0xbe,
  0x40, 0x9b, 0xea, 0x3e, 0xd6, 0x3e, 0x80, 0x3e, 0x7b, 0xbb, 0x38, 0xbf,
  0x24, 0x18, 0x8a, 0x3f, 0xc4, 0x9c, 0xde, 0x3e, 0xe4, 0xa6, 0x0a, 0xbe,
  0x91, 0x19, 0xb5, 0xbe, 0xea, 0xdc, 0x97, 0x3e, 0xc9, 0x5a, 0x74, 0x3e,
  0x6d, 0x17, 0x69, 0x3e, 0x28, 0x20, 0x35, 0x3d, 0xc8, 0x33, 0x00, 0x3e,
  0x27, 0x25, 0x70, 0x3e, 0x70, 0x11, 0xa9, 0x3e, 0xdf, 0x09, 0xfb, 0xbe,
  0xeb, 0x24, 0xc8, 0x3e, 0x8e, 0xe3, 0x95, 0xbe, 0xfb, 0x69, 0xa6, 0xbe,
  0xb5, 0xc9, 0x60, 0x3d, 0xcb, 0x5d, 0x28, 0x3f, 0x6d, 0x42, 0x1f, 0x3e,
  0x6c, 0xb9, 0xdd, 0x3e, 0xcf, 0x52, 0x6d, 0x3e, 0x2c, 0x18, 0x67, 0x3e,
  0xc6, 0x91, 0x2a, 0xbf, 0x1f, 0xa2, 0x31, 0xbf, 0x99, 0x2b, 0x17, 0xbd,
  0x87, 0xc8, 0x9b, 0x3e, 0x0a, 0x11, 0x2e, 0xbe, 0x83, 0xf7, 0xb1, 0x3e,
  0x94, 0x2d, 0x42, 0x3e, 0xd8, 0x33, 0x5a, 0xbc, 0xb0, 0x97, 0x44, 0x3f,
  0x99, 0x1e, 0x75, 0x3f, 0x88, 0x45, 0x79, 0xbd, 0xf3, 0xf3, 0x80, 0xbd,
  0xf8, 0x5a, 0x9e, 0xbe, 0x35, 0xb2, 0xb3, 0xbd, 0xb3, 0xe6, 0xf1, 0x3e,
  0xbd, 0x5e, 0x23, 0x3f, 0xbd, 0x8a, 0x03, 0xbe, 0x22, 0x6e, 0xff, 0xbe,
  0xe4, 0x4a, 0xd4, 0x3e, 0xbd, 0xd7, 0x76, 0x3e, 0xe5, 0xc9, 0x96, 0xbe,
  0x76, 0xef, 0x08, 0x3e, 0xe4, 0xe5, 0x24, 0xbe, 0x39, 0x24, 0xf3, 0x3e,
  0x94, 0x22, 0xf9, 0x3e, 0xc7, 0x70, 0x3e, 0x3e, 0xf6, 0x05, 0xb5, 0xbc,
  0xa7, 0x14, 0x7c, 0xbe, 0x35, 0x13, 0xd3, 0x3e, 0x7c, 0xde, 0xe8, 0xbc,
  0x0e, 0x9c, 0x29, 0x3e, 0x98, 0x0c, 0xae, 0xbe, 0x9e, 0x7b, 0xcb, 0xbe,
  0xca, 0xd4, 0x2e, 0xbe, 0x89, 0x55, 0x15, 0xbf, 0xd4, 0x59, 0x05, 0xbf,
  0x6f, 0xbb, 0x38, 0x3c, 0x4e, 0x27, 0xc5, 0x3d, 0x19, 0x9a, 0xfa, 0xbe,
  0x78, 0x46, 0x96, 0xbd, 0x9c, 0xa6, 0x03, 0x3f, 0xdd, 0x2f, 0x2a, 0xbf,
  0x84, 0xe3, 0x8f, 0xbe, 0x9f, 0x7a, 0x02, 0xbf, 0x4c, 0xbc, 0xf8, 0x3e,
  0x90, 0x2f, 0xf2, 0xbe, 0xc9, 0x6e, 0xf2, 0x3e, 0xc0, 0xeb, 0xcc, 0x3d,
  0x9a, 0x10, 0x79, 0xbe, 0x0b, 0x0c, 0x27, 0xbe, 0xb4, 0xd2, 0xba, 0xbe,
  0xf1, 0xd1, 0x2b, 0xbe, 0x39, 0x4c, 0xac, 0xbd, 0x08, 0x0c, 0xbb, 0x3e,
  0x1e, 0xfe, 0x3c, 0xbf, 0xed, 0xa4, 0x26, 0xbe, 0xfd, 0xf2, 0x06, 0x3e,
  0x58, 0xd4, 0xfc, 0x3c, 0xb9, 0x3d, 0xe5, 0xbe, 0x98, 0x0e, 0xce, 0xbe,
  0xb7, 0xc8, 0xbf, 0x3e, 0xcd, 0xad, 0x08, 0x3e, 0xfe, 0xd8, 0xbc, 0xbe,
  0x92, 0x9d, 0x3f, 0x3e, 0xc6, 0x5d, 0x79, 0x3e, 0xfc, 0xaa, 0xcb, 0xbd,
  0xad, 0xa6, 0x17, 0xbe, 0xa1, 0x58, 0x2c, 0xbd, 0x41, 0xd6, 0x68, 0x3d,
  0x10, 0x05, 0x31, 0x3c, 0x2f, 0xc1, 0x07, 0xbf, 0xbe, 0xa3, 0x82, 0xbe,
  0x7e, 0x8a, 0x2e, 0xbf, 0x33, 0x48, 0xb4, 0x3d, 0x66, 0xfe, 0xff, 0xff,
  0x60, 0x00, 0x00, 0x00, 0x04, 0x00, 0x00, 0x00, 0x08, 0x00, 0x00, 0x00,
  0x60, 0x00, 0x00, 0x00, 0x49, 0x00, 0x00, 0x00, 0x73, 0x65, 0x71, 0x75,
  0x65, 0x6e, 0x74, 0x69, 0x61, 0x6c, 0x2f, 0x6f, 0x75, 0x74, 0x70, 0x75,
  0x74, 0x2f, 0x4d, 0x61, 0x74, 0x4d, 0x75, 0x6c, 0x3b, 0x53, 0x74, 0x61,
  0x74, 0x65, 0x66, 0x75, 0x6c, 0x50, 0x61, 0x72, 0x74, 0x69, 0x74, 0x69,
  0x6f, 0x6e, 0x65, 0x64, 0x43, 0x61, 0x6c, 0x6c, 0x2f, 0x73, 0x65, 0x71,
  0x75, 0x65, 0x6e, 0x74, 0x69, 0x61, 0x6c, 0x2f, 0x6f, 0x75, 0x74, 0x70,
  0x75, 0x74, 0x2f, 0x4d, 0x61, 0x74, 0x4d, 0x75, 0x6c, 0x00, 0x00, 0x00,
  0x02, 0x00, 0x00, 0x00, 0x03, 0x00, 0x00, 0x00, 0x4b, 0x00, 0x00, 0x00,
  0x94, 0xfe, 0xff, 0xff, 0x7e, 0xff, 0xff, 0xff, 0x04, 0x00, 0x00, 0x00,
  0x0c, 0x00, 0x00, 0x00, 0x86, 0x94, 0x52, 0xbd, 0x9e, 0x11, 0x57, 0x3d,
  0x1f, 0x7e, 0x25, 0xbd, 0xf2, 0xfe, 0xff, 0xff, 0x58, 0x00, 0x00, 0x00,
  0x03, 0x00, 0x00, 0x00, 0x08, 0x00, 0x00, 0x00, 0x54, 0x00, 0x00, 0x00,
  0x40, 0x00, 0x00, 0x00, 0x53, 0x74, 0x61, 0x74, 0x65, 0x66, 0x75, 0x6c,
  0x50, 0x61, 0x72, 0x74, 0x69, 0x74, 0x69, 0x6f, 0x6e, 0x65, 0x64, 0x43,
  0x61, 0x6c, 0x6c, 0x2f, 0x73, 0x65, 0x71, 0x75, 0x65, 0x6e, 0x74, 0x69,
  0x61, 0x6c, 0x2f, 0x6f, 0x75, 0x74, 0x70, 0x75, 0x74, 0x2f, 0x42, 0x69,
  0x61, 0x73, 0x41, 0x64, 0x64, 0x2f, 0x52, 0x65, 0x61, 0x64, 0x56, 0x61,
  0x72, 0x69, 0x61, 0x62, 0x6c, 0x65, 0x4f, 0x70, 0x00, 0x00, 0x00, 0x00,
  0x01, 0x00, 0x00, 0x00, 0x03, 0x00, 0x00, 0x00, 0x60, 0xff, 0xff, 0xff,
  0x00, 0x00, 0x06, 0x00, 0x08, 0x00, 0x04, 0x00, 0x06, 0x00, 0x00, 0x00,
  0x04, 0x00, 0x00, 0x00, 0x08, 0x00, 0x00, 0x00, 0xff, 0xff, 0xff, 0xff,
  0x4b, 0x00, 0x00, 0x00, 0x00, 0x00, 0x0e, 0x00, 0x18, 0x00, 0x08, 0x00,
  0x07, 0x00, 0x0c, 0x00, 0x10, 0x00, 0x14, 0x00, 0x0e, 0x00, 0x00, 0x00,
  0x00, 0x00, 0x00, 0x02, 0x60, 0x00, 0x00, 0x00, 0x02, 0x00, 0x00, 0x00,
  0x08, 0x00, 0x00, 0x00, 0x60, 0x00, 0x00, 0x00, 0x49, 0x00, 0x00, 0x00,
  0x73, 0x65, 0x71, 0x75, 0x65, 0x6e, 0x74, 0x69, 0x61, 0x6c, 0x2f, 0x66,
  0x6c, 0x61, 0x74, 0x74, 0x65, 0x6e, 0x2f, 0x43, 0x6f, 0x6e, 0x73, 0x74,
  0x3b, 0x53, 0x74, 0x61, 0x74, 0x65, 0x66, 0x75, 0x6c, 0x50, 0x61, 0x72,
  0x74, 0x69, 0x74, 0x69, 0x6f, 0x6e, 0x65, 0x64, 0x43, 0x61, 0x6c, 0x6c,
  0x2f, 0x73, 0x65, 0x71, 0x75, 0x65, 0x6e, 0x74, 0x69, 0x61, 0x6c, 0x2f,
  0x66, 0x6c, 0x61, 0x74, 0x74, 0x65, 0x6e, 0x2f, 0x43, 0x6f, 0x6e, 0x73,
  0x74, 0x00, 0x00, 0x00, 0x01, 0x00, 0x00, 0x00, 0x02, 0x00, 0x00, 0x00,
  0x04, 0x00, 0x06, 0x00, 0x04, 0x00, 0x00, 0x00, 0x00, 0x00, 0x0e, 0x00,
  0x14, 0x00, 0x04, 0x00, 0x00, 0x00, 0x08, 0x00, 0x0c, 0x00, 0x10, 0x00,
  0x0e, 0x00, 0x00, 0x00, 0x18, 0x00, 0x00, 0x00, 0x01, 0x00, 0x00, 0x00,
  0x08, 0x00, 0x00, 0x00, 0x20, 0x00, 0x00, 0x00, 0x01, 0x00, 0x00, 0x00,
  0x78, 0x00, 0x00, 0x00, 0x04, 0x00, 0x00, 0x00, 0x01, 0x00, 0x00, 0x00,
  0x03, 0x00, 0x00, 0x00, 0x19, 0x00, 0x00, 0x00, 0x02, 0x00, 0x00, 0x00,
  0xfc, 0xff, 0xff, 0xff, 0x04, 0x00, 0x04, 0x00, 0x04, 0x00, 0x00, 0x00
};
unsigned int __ml_dataset_model_tflite_len = 5100;
